/**
  ******************************************************************************
  * @file    cnndqn_data_params.c
  * @author  AST Embedded Analytics Research Platform
  * @date    2026-02-20T17:10:56+0800
  * @brief   AI Tool Automatic Code Generator for Embedded NN computing
  ******************************************************************************
  * Copyright (c) 2026 STMicroelectronics.
  * All rights reserved.
  *
  * This software is licensed under terms that can be found in the LICENSE file
  * in the root directory of this software component.
  * If no LICENSE file comes with this software, it is provided AS-IS.
  ******************************************************************************
  */

#include "cnndqn_data_params.h"


/**  Activations Section  ****************************************************/
ai_handle g_cnndqn_activations_table[1 + 2] = {
  AI_HANDLE_PTR(AI_MAGIC_MARKER),
  AI_HANDLE_PTR(NULL),
  AI_HANDLE_PTR(AI_MAGIC_MARKER),
};




/**  Weights Section  ********************************************************/
AI_ALIGNED(32)
const ai_u64 s_cnndqn_weights_array_u64[45804] = {
  0x3e4b17093e42f0b3U, 0xbc9de719bd963462U, 0xbce1aa13bddc4158U, 0xbd2ac2ae3d20184dU,
  0xbdd6e6293c29d35eU, 0x3d4091f9bd431b17U, 0xbe02dbdabd5ac151U, 0x3e8c6a72be02a1a3U,
  0xbc1e9f71bccf8830U, 0x3d363356bd8ca514U, 0xbdb698cf3e345749U, 0x3d929fae3e801468U,
  0x3d1c1c46be0dd03dU, 0x3ce79f463e502af8U, 0xbdda40893e3a7eeeU, 0xbc5329003ded966dU,
  0xbca3c9de3e787b67U, 0x3e56a492bdfc453eU, 0xbe61ba6abaf76ae5U, 0x3ca450b83e4741bbU,
  0x3daf97f13e2676c0U, 0x3da8b2a73e2edc5dU, 0x3ca4fff63de810b0U, 0xbd8f840fbd58cf38U,
  0x3d867e003e57c41bU, 0x3e186e1abddfff77U, 0x3e4943f7be0e2374U, 0x3e186102bd5c51e7U,
  0x3e6662953e1d5909U, 0xbc9489323e52b898U, 0x3e49414f3d8f5ad5U, 0x3ded2e1cbde54791U,
  0x3df81311bba03a07U, 0xbdc404163e1815f4U, 0x3e2027843e0f8a22U, 0x3e341e73bc3a76d0U,
  0x3e714b013da375e8U, 0x3e0c591bbdc5e020U, 0xbc9b907dbdcecc2cU, 0x3dd36a4a3dd1123eU,
  0xbe1b2ef83dea107dU, 0x3e54451d3e21a0dbU, 0x3e54dd58be12d782U, 0xbd6d1b9f3dfeec41U,
  0xbdfda7f13e50d49aU, 0x3c3ca635be135530U, 0xbdeb0f753e4d4164U, 0x3d6d2e88bc463f75U,
  0x3e5e031bbcf680ceU, 0x3e6d8ddd3df58433U, 0x3d837b7abdf6438eU, 0x3dab1f523de1e820U,
  0x3da39026bda023e2U, 0x3e13fea23e4b910dU, 0x3defdf883df9754eU, 0xbe141e453d01e063U,
  0xbb38a2493e3cdb56U, 0xbe0e61fc3e4d90cfU, 0xbe2f33cf3e645796U, 0x3e660659bc85d9f0U,
  0xbc8a94f73e8b5722U, 0xbafeed653ccde6a4U, 0x3dc520443c8d786aU, 0x3e3726993e2902adU,
  0xbd5d7a10bcb06095U, 0x3e5715003ddd1aa7U, 0x3e3ad6b13dcd9e1dU, 0x3b9d29d43d7c3ed9U,
  0xbe26aaff3e159447U, 0x3c194207be126ad4U, 0xbe4143e33e464c65U, 0x3e9eb7243d8ef69cU,
  0xbd563e1abdb7aa6eU, 0xbde1ad41bdb90383U, 0xbe2c16703d5ed0f7U, 0x3d5d7c6dbda213b5U,
  0xbc6da8f33c9848e2U, 0xbd3fcaa43e83e6bfU, 0x3e36bc1b3d88803eU, 0x3e0a6b71be5418fdU,
  0xbe7055a6bd2b5eb9U, 0x3ea60489bea63ae2U, 0x3cda52e4bdceb74dU, 0xbd891675be8ade32U,
  0x3e45b9a2be10898eU, 0x3d85f7b0bdaa8b70U, 0xbdf948e8bbba2f22U, 0x3ea46a92bdebca43U,
  0x3e022a13bdea5d2cU, 0x3db95fc33e0bc115U, 0x3d4416a03d81e48fU, 0xbd00f04bbd5ed692U,
  0xbdb347d0bd03c3adU, 0xbc72bbcb3e039326U, 0x3e54241b3bbaa8a5U, 0xbe1f1382bc51f934U,
  0xbe6e3b073e5f7f51U, 0xbcebd163be10ea7bU, 0xbdd609c63e5fb9efU, 0x3d1200d33d90c855U,
  0x3d5274583e4b3567U, 0x3d262fed3e3d021fU, 0xbe2e3b393e2f17afU, 0x3dfc12bdbdd5937bU,
  0xbe0d41643d9c5eb1U, 0x3e04cb123e20e20dU, 0x3e465c51bd8ad69dU, 0x3cdebcf1bc023b0dU,
  0x3c3cb5343d9c3066U, 0xbd698a09bde2ce52U, 0x3e22aff7bbcf3b06U, 0xbd84caba3e847026U,
  0x3dc35e65bdd771f4U, 0xbde5cf36be3fd5acU, 0xbd006be73d320680U, 0xbc9280e2be59e989U,
  0x3d902e6cbdb03f66U, 0x3d2935a23df3058aU, 0x3e381c4cbe0df499U, 0x3d4a9981be10054cU,
  0x3e2bea7b3d059c21U, 0xbd9e129d3e2641f4U, 0x3db70ec43e23e72fU, 0xbe85e75b3e12732aU,
  0x3e13df293e3e8fb6U, 0xbe1b6007be560fa2U, 0xbdfac70d3c50ced4U, 0x3d08bab7be156bccU,
  0xbc86b2f6bdcfe20dU, 0x3ca038113d68160aU, 0x3e1e7a363d8668d9U, 0x3e2127d6bd9b08b9U,
  0x3dba46dd3e2c5907U, 0x3db006a53d50f940U, 0xbd07b604bd3897dfU, 0x3e77526d3da28623U,
  0x3c0ff6f33e681c73U, 0xbdc93afc3dc6cd31U, 0x3dd840943b33fc33U, 0x3e8b7de2bda7929dU,
  0xbe341931bd995502U, 0x3d7ee9e4bd8b082fU, 0x3dc0785bbe2348e8U, 0x3e588a0e3c4d5872U,
  0xbe22bc0e3e73a1ffU, 0x3e817765bdba48c4U, 0x3e2624e43d9a0fb8U, 0x3e38e3913e5b3815U,
  0x3dca0cdbbe396bfaU, 0xbe72b7d73d8e5639U, 0x3de9eeb9bdbbdf9fU, 0xbd59e70cbe274fc9U,
  0xbe29d5debd3746c7U, 0x3d28f053bd78ccb4U, 0x3e8029a73bea3077U, 0xbd6ea0223dec854eU,
  0x3dbce1c8bd819ec6U, 0x3e136cac3dffdb62U, 0xbcd5f8f73d7e1ef5U, 0x3db0dbed3bb8a56aU,
  0x3dcc5c32bd9aa9beU, 0x3c4e22e5bda3ac6cU, 0xbd74ebfd3d9d12d8U, 0x3da525aebe348a32U,
  0xbd91fe30bdf85e95U, 0x3da3204cbcce5dafU, 0x3e7712cdbd9a84d6U, 0xbe23d64f3e30217bU,
  0x3e7299da3e825dacU, 0x3e2abd813bbda844U, 0xbde0700cbcad4070U, 0x3dbb37403cd2d2e6U,
  0xbd2b9a883df78ee2U, 0xbcd44c363e24e4e6U, 0xbd0be7fdbde346a7U, 0x3d19bd0b3d314b52U,
  0x3d9da5263e367daeU, 0x3d95a6183e42e1e7U, 0xbc8ee349bd93da14U, 0xbdbcc1ea3e041fd6U,
  0xbda71eb13d2d3d5cU, 0x3e167104bd150eacU, 0x3e1bb1c23e36d238U, 0xbd24ee3a3e609170U,
  0xbe1ab500be561490U, 0x3dfb001dbd2571feU, 0x3d065f47be0b4ac6U, 0x3dde99533dc873a1U,
  0xbd8f43a2bcc10058U, 0xbdcc9d73be0ca078U, 0x3d21f57e3dc0ea7cU, 0x3dfbfbd23db6a7f4U,
  0xbe2242e93e299fc7U, 0x3d9ed29abe20e7b6U, 0xbe6507d4b86afc87U, 0x3e307b9c3e20c95eU,
  0xbe0339dc3df2dff0U, 0x3e76eb71bc6972feU, 0x3e308c453e2885ceU, 0x3db3c6f9be3b1591U,
  0x3e25f4acbd01f136U, 0xbb0d61653e6cad63U, 0x3df12f32be38f649U, 0xbc81c249be464d18U,
  0x3e890e03bd928530U, 0x3ddeb4aabdd88c77U, 0xbe3765673e66a61eU, 0x3d5848033d29b619U,
  0x3d9f8dcbbc9f6845U, 0x3daf83dfbeb3fe42U, 0xbe6a001d3dab9091U, 0x3dac79433dfabbd1U,
  0xbca00a50bdf9b75dU, 0x3c5eb2243e3959b6U, 0xbd1bba633e098261U, 0x3e3df5493dbed50bU,
  0x3c3002ac3e3f37cdU, 0x3dfd16e03e2195ccU, 0xbe7601253e1da06cU, 0x3dee708d3e8925aaU,
  0xbd635e3e3d17cacbU, 0xbc6f46eebd068a10U, 0xbdef44eb3e823b15U, 0x3e70a294bd86a37fU,
  0xbdf4ea303df47981U, 0x3cfbde98bd3d55faU, 0x3e10ed70be1b1ec1U, 0xbe37103b3db0b43aU,
  0x3d54b7a13e2440f7U, 0x3e89f6413e5ca03fU, 0xbe0903dfbcb8beebU, 0xba8af32dbd98cc35U,
  0x3e0cfb7f3e89ec3aU, 0x3d32f59cbda7aa1fU, 0x3de4b948be3e5165U, 0xbdc2a2a43e44fdf8U,
  0xbd25600d3de643c2U, 0xbe3de7223e8e4aa8U, 0xb9b7b9a8bdc7ff86U, 0x3e60518ebde9a19bU,
  0xbde187403eabf824U, 0xbddeb5c9be806b66U, 0x3e27e0003d9735acU, 0x3cb0c4883d1e69a6U,
  0x3e9d776fbe05e0e1U, 0xbe44d4763c0a3e64U, 0xbdf84b21bdfcfd2bU, 0xbcdf61473e241ea8U,
  0xbdfa9467bd7dcc34U, 0x3d2c43c33e4bcdf8U, 0x3e82c85abe009dbdU, 0x3df3d6c4bd9ac89bU,
  0xbaeaa8883e27cf04U, 0x3d2331153d3c1d1eU, 0x3d03af02bd8f0e62U, 0x3e18b7ed3ea03305U,
  0x3c867d2abdbf4ec6U, 0x3cfe2b2ebc9df081U, 0xbd5ad356bdfd8c7aU, 0xbde89efd3e424357U,
  0xbd0729d53e5e4a88U, 0x3d2b3315bcc5a880U, 0x3e92c62a3bbe1502U, 0xbdab6f7abb96f5b5U,
  0xbddbe54d3e53dc7cU, 0xbcea8c4f3e44d1c4U, 0x3e7247d73d0e11f3U, 0x3e68712bbd93ca95U,
  0x3d1b85c93e083bc4U, 0xbdd5ea7bbd86007fU, 0xbd0a1ed3bdb28ca7U, 0x3dd61dde3e59f093U,
  0x3c1f70443da82622U, 0xbcf542b23e7048a2U, 0x3e460bc13e5467ffU, 0xbe6188cbbe35f00aU,
  0xbc3ad8b1be16208eU, 0x3e35b09f3cfc78acU, 0xbe18a78c3c8cfe20U, 0x3ded4f653dde14b7U,
  0x3e760f73bd0ce16bU, 0x3d55677c3dac8be8U, 0xbd5c35e53e6b7fffU, 0x3d491e5abdafa287U,
  0xbc884fc7bc64b203U, 0xbdff54bc3db4feb7U, 0x3d992a493d029f63U, 0x3de796e63dd21d4cU,
  0xbda14695bd0bef38U, 0x3ebcfd193d331fe2U, 0xbc945be4be968953U, 0x3e6a7ed1bea95769U,
  0x3dbde7053db9a1c2U, 0xb9d24e15bd162778U, 0x3e8bef65bec0e08dU, 0x3e9455773e1e52e4U,
  0x3d0a320ebea417cfU, 0xbe11c5b53e4008cdU, 0xbddde9923d422f43U, 0x3e453642bdd4f1afU,
  0x3e1081323ddca5cbU, 0xbc84870bbd8242feU, 0x3e543f9ebd1de9c7U, 0x3e5d16ff3e49e6c7U,
  0x3cfcf2dabe906265U, 0x3e8d009d3e2025aeU, 0x3de8427f3e1c8754U, 0x3e3ad090bd6fcb1fU,
  0xbe0a9046bd9d332bU, 0x3de396423c9b8755U, 0x3e3a52fe3baea523U, 0x3de1dc993e6bf14eU,
  0x3e3228203d828844U, 0x3e665d2d3cdd74fbU, 0xbe1abe3d3debe928U, 0xbd2cb9303e095239U,
  0xbda0db1abe69d7c9U, 0xbcab84ed3de9a838U, 0xbbb41ea5be02058fU, 0xbe092d70be00970cU,
  0xbd4ce5523db18810U, 0x3d6d5211bd86d3fcU, 0xbe08e3703d19ae9eU, 0x3d968fa13d4a9775U,
  0x3eb1b9a5bdc6d15dU, 0x3d99e10c3dfa8765U, 0xbe19ed6fbe514856U, 0xbe138d393cea8d44U,
  0x3e9573743e2125bfU, 0x3e356a46be8b94c2U, 0x3e0153afbd6aa307U, 0xbdd33803be05840aU,
  0xbd919a62bdbe9744U, 0x3d8dcef93e8119b8U, 0xbddb95dc3c07d854U, 0xbe137fc83e2139d0U,
  0x3bce78043d20fab0U, 0xbcbf16163e779be2U, 0x3df1495a3e322978U, 0xbe6eb2b9bb66dd36U,
  0x3bb270dfbdbd303dU, 0xbc4e2c243dd91aa9U, 0xbea49c503ea1fc08U, 0xbe0cf9f03e38ee16U,
  0x3e16d3423e730284U, 0x3d4993f83e381825U, 0x3ddceec83e0ac23fU, 0x3db4b402be8b1ec1U,
  0x3e4597dabe19146bU, 0xbd7d9d9b3d1baaebU, 0xbdb0a825bce44031U, 0x3cb18c2f3e745feeU,
  0xbc973b8d3e5d04adU, 0x3dc199f63defff64U, 0x3e34596d3e5ab6e0U, 0x3bef1fc9bb06c561U,
  0xbc2942033e1ba873U, 0x3d867b33bd26f81aU, 0x3e05f5e53e2c6665U, 0xbc2968833dda1f52U,
  0xbdf872b33e0fb92bU, 0x3d8e65733d138891U, 0x3e460380bde7714bU, 0xbdc5471b3ddee315U,
  0x3e0c642b3e4f3cdeU, 0xbe1e24ef3dbbc2f0U, 0x3e355a7abe33ddc1U, 0x3d083ea63e5a0dd9U,
  0x3d4e07193d566081U, 0x3dbc96d7be431ce9U, 0x3e6b2a6a3e329d94U, 0x3dda7e6dbdf57ea5U,
  0x3e2c06e5be6ba784U, 0xbe0c40b63e3c46b2U, 0x3ded14e1bdb6e12cU, 0x3e13ae223d4ad5faU,
  0x3d9212debdad2ae3U, 0xbd335d763e4d06ceU, 0x3ba7a9883df9cf92U, 0x3d9f348dbe7a1069U,
  0x3e6d9c08bd5f6686U, 0x3dbbc037be3a00e6U, 0xbcc405483e342a5fU, 0x3e811b8cbe201ee2U,
  0x3cc40255bcab48a7U, 0x3d86a46bbddcd9b0U, 0xbe1f3b483e100e23U, 0xbc9a5e743e431912U,
  0x3e1c33513d8c8705U, 0xbe4ba4f53e5e09ccU, 0x3e2918413dfdca56U, 0x3d3c379fbe15ddc0U,
  0x3e6b45b93d105ff2U, 0xbe39fe903e9d06dbU, 0x3e30dd9bbd4bd88eU, 0xbe0dd25b3e3d69f6U,
  0x3dc8e26e3e8218a8U, 0x3dee00253a9d5856U, 0x3e6ad322bd534800U, 0xbcbe6cb93e36d942U,
  0xbded4b623df59b69U, 0x3d4bfd973e134072U, 0x3e40aa023e726f8bU, 0xbc2c4868bd5f69ffU,
  0xbd9d64c3be08a577U, 0x3e53b456be0b5764U, 0x3eac85e9bd954adbU, 0x3e1651afbe971f74U,
  0xbe3e38293eab3b39U, 0x3e98dfdebcf39e10U, 0x3dfef4b5beb610c1U, 0x3e5bfef6be936743U,
  0xbde41749bd9722b3U, 0xbd0280583e8a9e3bU, 0xbce881abbd658ae0U, 0x3e1a3f203c47cab0U,
  0x3d1f4301bd995178U, 0x3d6c0a0a3e057a51U, 0x3ddd18793e0169eaU, 0xbc3c4c1abd9e16c2U,
  0xbdc2395ebe12cb47U, 0xbd59c1843e8f3017U, 0x3e1e10363dbb934fU, 0xbb2b2357bd8802fdU,
  0x3e3feee23c63aee2U, 0x3d104ae43d4d7bb3U, 0x3e252dd13e72aadfU, 0xbdcdc3a73d8f952cU,
  0x3d9c85693c694acaU, 0xbe61fc6e3e0d6ae6U, 0xbd306d913df1f8c9U, 0xbdfa9ab83e2ce2a1U,
  0xbdd525f63e7ec1e4U, 0x3dcd1fc33c456a19U, 0x3d9cd287bd82676dU, 0x3e4d45c93cbe362eU,
  0x3e3dc8003e2f419aU, 0xbc921e2ebd8f8a83U, 0xbd0dd3c43e424d11U, 0x3ddaf5643e05f24aU,
  0xbe006cc13e2ccbedU, 0x3abcea523dc87826U, 0x3c16bdf33e17f0deU, 0x3e0950d1bdcff986U,
  0x3bb5b3bc3d161f28U, 0xbdfe76153df133d0U, 0x3b391a953c935e2fU, 0xbdc2d8a0bd867da5U,
  0x3c13b32bbc3e22bbU, 0xbc5a309abcdbef8fU, 0xbd834b023d2a471eU, 0x3b791bc3bd0bcbbaU,
  0x3cefaf5f3d7973feU, 0xbce5bf513da5b373U, 0xbd23dd703d39a202U, 0x3d4e4e543d3ce778U,
  0xbb2376b1bc16d54dU, 0x3d7da88e3d04e149U, 0x3e0bb6353d9984d1U, 0x3cf4b0a83d22fa00U,
  0xbd5629103aa6867aU, 0xbb6380be3d5b8a95U, 0x3d6df2c2bd32084dU, 0x3cbcdc083c1122b6U,
  0xbce63267bc8807e9U, 0x3cde1dbd3cdf555fU, 0x3d356cb53d19f171U, 0x3d8813b43cf8fa82U,
  0x3d864c89bcef7024U, 0x3c2dd89bbd15ad80U, 0xbd0ca2673d9bd105U, 0xbd3edbbebc99596aU,
  0xbd04c5a4bcfeb762U, 0xbbc83ea2bb6dc5c0U, 0xbda31e713d46eaa1U, 0x3d46748e3c1f79abU,
  0xbc4bbc21bc8f009eU, 0xbcacc8063caf902eU, 0xbbe6e2533d9c8eb5U, 0xbca606cd3d81e135U,
  0x3a622f1ebc9c19f7U, 0x3ca07d94bc5c483aU, 0x3dc2e77c3d445cebU, 0x3c1eb36cbbd0e64aU,
  0xbc958315bc2f2e5aU, 0x3c1d03243d507714U, 0xbd2f79f13d8c45f8U, 0x3d4805373c7d0991U,
  0x3da7586f3c3d9f0aU, 0xbcb46e893de353d8U, 0x3d73dfd7bcdbd0f0U, 0xbcbd6ef9bcd7377dU,
  0xbd489a1bbbeb815bU, 0x3d506529bd20cbf8U, 0xbced0318bca34184U, 0xbd58a2743c670bb4U,
  0xbd0126c43cc4bd9dU, 0xbd0762cfbc1dbda2U, 0x3d3552273d92aa20U, 0x3dac77bc3cb27bbbU,
  0x3c0ce228bd3c3e0bU, 0xbcfdb9733da6a2fcU, 0xbd03b68fbc74318cU, 0xbbfe487f3c2f5450U,
  0xba5a9bf83bf7f427U, 0x3d835d823da45425U, 0x3d9d73b03d8a51d9U, 0x3d4365c53c901bbcU,
  0x3c251a30bba0e2baU, 0xbc8d16dd3ce3c9aaU, 0x3d40c9bc3d936cb8U, 0xbc9234a5bc97008cU,
  0x3d44cf55bc08577bU, 0x3bd22fdb3d6ccbf6U, 0x3dba72493d62692fU, 0x3d4b23bb3ca15569U,
  0x3da52977bdaf1172U, 0x3cd041e93d129f5fU, 0xbd251063bcb4d5e8U, 0x3d3c2accbcbdf058U,
  0xbce24bd73d5ca727U, 0xbd119af53bc2eadeU, 0x3c8e967abc48d8beU, 0xbc947981bc046984U,
  0x3d3e3d15bd27a964U, 0xbd4cd34f3d8c3c19U, 0x3c06cdc83c0c28d6U, 0x3cb941fe3ddc2134U,
  0x3d7f19683d65a69eU, 0x3d82cb493d1e958eU, 0x3917490f3d7201d1U, 0x3ca21750bd521b90U,
  0x3d9c33213dcc2502U, 0x3d16d98d3c6f41d1U, 0x3b5683493c3dfeccU, 0x3d2abc663d92bd2aU,
  0xbd88ecc5bc8b2f11U, 0x3d7340a1bc0e6949U, 0x3df5d4353d47491bU, 0x3d939bd13c9ee265U,
  0xbdcab760bd09a222U, 0x3d1c7345bd0e388aU, 0xbd70ca923c08ca11U, 0xbad355a8bc85c703U,
  0x3d569dc6bd1e7cb5U, 0x3d07f59dbd1262c4U, 0x3d002cb0bb40a3dbU, 0x3b8039683d93f4dfU,
  0xbcff38b03d1ef37aU, 0xbcf8b4013c38aa95U, 0x3d90cd793d4a08c6U, 0x3d7005003d50be6cU,
  0x3c464a743dad4b20U, 0x3d9ae0953bf9db60U, 0xbdc6ed153d221af3U, 0x3cfc0a8d3d1d6cd6U,
  0x3dbcfc593d989f07U, 0x3d4fac1d3c953b5cU, 0x3d8a28ac3d0ff7a0U, 0xbcd60dd93d7fe173U,
  0x3d92b7083d1e819fU, 0x3cddfc1d3c9d4e35U, 0x3c9573bfbcfbad8eU, 0x3d954a283d8a848bU,
  0x3da9d2de3d55591eU, 0x3d67eace3c2b42e9U, 0x3dad7ef73db7adecU, 0x3d6e4c9f3c4201e5U,
  0x3cd937713d83b43dU, 0x3c3c6996bd73f2c9U, 0xbd9a31593d2b21d7U, 0x3d8195803ce920fcU,
  0x3cd10b173d100005U, 0x3bf7ea073d98aa2cU, 0xbd039d8abc2f4e49U, 0x3d831c3cbb9d3c1cU,
  0xbc9383883ce6848aU, 0xbd0981203d550bb5U, 0x3ce06e1a3ba70d21U, 0xbca616643c8619e8U,
  0x3c922b1d3c53547fU, 0x3c13fc0abc76e9fcU, 0x3db4d98d3dc91536U, 0x3c8cce5f3d477173U,
  0xbd5497a33ac67b70U, 0x3c269b543dc8e2feU, 0xbc2c86acbc4893dbU, 0x3d18f2973d634b8eU,
  0x3d8af33ebd6d00b3U, 0x3d9b1fef3d485a90U, 0x3cb024f73d70cfd0U, 0xbc24654c3d213f0cU,
  0x3d1ab6803dbaf08bU, 0x3d09a1053b90aa61U, 0x3d79a7e93c9218c9U, 0xbd2593da3cd01c44U,
  0xbd457ee8bcc9fe49U, 0xbd054ae2bc5b1802U, 0xbd4858fcbcb4afd5U, 0x3d3b1a04bd6f2c02U,
  0x3d47ab123cffeac7U, 0xbc26dda03c01dc33U, 0xbd9ddc42bd3ded8dU, 0x3cdc39c33dba4846U,
  0x3c582351bc3a9c9eU, 0xbca04cdcbbaae5b6U, 0xbc1f3e9b3ce2fe05U, 0x3c9b2aea3d14b673U,
  0xbdac13edbdfe7e8cU, 0xbc5d9ff33ccd45c9U, 0xbc58573fbd0eaca1U, 0xbdac596d3cc4bd3eU,
  0x3d4025cabcdfbfdaU, 0x3cf0abe83dc86bf5U, 0xbd97fb22bd931425U, 0x3c5c0a2e3dd72ee5U,
  0x3ccca39fbc861388U, 0x3c039ae03dbb4856U, 0x3e2de767bb7addd1U, 0xbb811bc6bd8b6eb5U,
  0xbc52f897bc4d4febU, 0xbd066e6ebc69d752U, 0x3c9690f3bdcfe6a6U, 0xbcdeb57abc5f8281U,
  0x3d6c6d083db8e23bU, 0xbd1af703bd373313U, 0xbcae71cfbcb39cb2U, 0x3d989c9c3ba6bbf5U,
  0x3d88b07bbd082fceU, 0x3c4f8c2dbd7dbc0aU, 0x3d1b702a3d801f49U, 0xbca53dc8bdbbacfeU,
  0xbd3046efbc976509U, 0x3ccff6523d72157cU, 0x3ddc8e0c3c6a772aU, 0xbdda7f7cbda9761bU,
  0xbda2327a3b40dce3U, 0x3d9fb5643cc802ddU, 0x3d245cc0bd21421eU, 0xbae469fbbc8985bdU,
  0xbd8bc3103c6f752fU, 0x3d32732e3ca452e3U, 0xbd38c1ff3d89f716U, 0x3d1b90d5bd8c6482U,
  0xbc5f21d63bc01628U, 0xbd39cf933c008d69U, 0x3cf4d0cbbd5442e3U, 0x3d44b68dbd55cf0bU,
  0xbbf3093c3cf044b4U, 0x3d2a974abc7e46a8U, 0xbde7a3263cc51420U, 0xbdca011c3c089267U,
  0x3d48aa103d228b63U, 0xbc97250cbb18c983U, 0x3dbd93ddbca44c9fU, 0xbd14b3b0bd79215aU,
  0x3d5dadc8bc4be5e0U, 0x3cf71f323daede20U, 0xbd02e15b3b1f546fU, 0x3cfd5449bdb5ff0fU,
  0x3c8160af3dbe1050U, 0x3ca35f9d3d2603e1U, 0x3c1c88623dbe85c8U, 0x3d8acdd4bd1f2ba3U,
  0x3d018cca3d48d9ddU, 0xbd2237c83d15e91dU, 0xbd3384823d4e51a6U, 0xbc9ad7efbda0d96bU,
  0xbd3243cebd7c9556U, 0x3db9a4513d67f668U, 0xbd7624dabcf47ae3U, 0x3d295e2bbd434b70U,
  0x3dcc5d8f3da58e5fU, 0xbc2a24083cc50fd9U, 0x3d5367ae3d4592e6U, 0x3cef4b8a3e0b5f72U,
  0x3da51292bd6a40ddU, 0x3d6cc2e53d994279U, 0x3d98a2533d5786a1U, 0x3d0e21b43d8c0cedU,
  0xba6b2c8cbdd56367U, 0xbcb3e0aebce0e468U, 0x3d033805bb9be92eU, 0xbcaecd2b3c672fc3U,
  0x3db9d8d3bc81eb29U, 0x3dad1134bd227c68U, 0x3d79b4f93d85e0c0U, 0x3dad7eb03da73ceeU,
  0x3d9b0d7e3cbfa4bbU, 0xbd64a11bbce2636eU, 0x3d8a805f3d1f19afU, 0xbd3703b93ce49ecdU,
  0x3c2e14a13a3388f5U, 0x3d0b76153da08ff4U, 0x3d210a0bbcac7bb2U, 0x3d4d97d83c2ce719U,
  0x3d6bcea7bbdbe224U, 0xbcbe3503bb74d340U, 0x3d09c2de3d953624U, 0x3b789584bd0346d6U,
  0x3dbb7fd73d7cefe9U, 0xbc3b0c383d39eef6U, 0x3d8554013dbbca1eU, 0xbc26cc813d29fcfaU,
  0xbd3cdebcbdb616bbU, 0xbca278a3bd28a84cU, 0x3c1ac49cbd07d52eU, 0x3df5fc5bbc21e6b2U,
  0xbc9a5d5b3d4fb71cU, 0x3bcdacad3d7385ddU, 0xbc877e503dad97f5U, 0xbdbfa08ebbeebc44U,
  0x3d7c2da1bce91dfeU, 0x3d84228d3dff1617U, 0x3e2d9a4ebd594869U, 0xbcd83ca2bcb0e9d8U,
  0xbc50c973bd7401edU, 0xbd295ef23d092fc9U, 0x3d031f363ccbc654U, 0x3d629da3bd75d11eU,
  0x3ce36938bcc80d9bU, 0x3d81f0063c16eae6U, 0xbdaf3de6bcee22f3U, 0xbc7002043d14866eU,
  0xbbbc22af3c89c990U, 0xb9ffc8f23ad07583U, 0x3c9a72e5b9a65548U, 0xbd6492f43cf078b3U,
  0xbd5468d23c8856ddU, 0x3c2b08d2bc840a83U, 0x39014b7b3d703172U, 0x3d75b7f0bcfbfe79U,
  0x38e58a24bd43fb5aU, 0x3c8eb6a1bcd8cae9U, 0xbd2dfc27bd9e8807U, 0x3d21cf043c08ae28U,
  0x3d053aecbd374e0cU, 0x3d5745f2bcc9299eU, 0xbc734686bb99e0faU, 0x3d5d05803d3aa42dU,
  0x3d9fc8c33cc30098U, 0xbd3a08873da73f89U, 0xbbee88a93c0809a5U, 0x3cacb67c3da1b1b1U,
  0xba0c2100bc9bc5c0U, 0x3d84b7913d98c93aU, 0x3d1bc8ebbba1c10dU, 0xbc5359293ba2bfe2U,
  0x3dbeeeb2bd17ac94U, 0x3c66c3083d02be13U, 0x3c1945ec3b920542U, 0x3b98c1423cc9037eU,
  0xbb5977b73b9d4cdbU, 0xbcda6cf0ba95644bU, 0x3d36b3db3c8f46c7U, 0x3d1a7d023d169565U,
  0xbc4796803d44f83fU, 0x3b4d44ee3d73d30fU, 0x3d82b0d23cabda61U, 0x3c693d693c53aa9fU,
  0xbc91b5c5bd22d869U, 0x3ad185393d8db2cfU, 0x3c9797413d459cb1U, 0x3d7eb7913bd1a230U,
  0x3d6f3e1fbd09b1eeU, 0x3cd9b8613ca29e4bU, 0x3d54cb9b3d307d70U, 0x3d579d46bcd78822U,
  0xbaec41a03cf71104U, 0x3d3bc255bd37adf1U, 0x3d5f045d3cdacbf0U, 0xbcf9ad063d4be067U,
  0x3ac12bb6bd19dfa9U, 0x3d8183de3c49e4a5U, 0xbd052f09bd33272bU, 0x3d807bff3d0f772eU,
  0x3d9d84ba3ce2c094U, 0x3d6880443d9b3b3cU, 0xbcada4c13d7ecdb6U, 0x3cd126b83d1f2110U,
  0x3c822638bcb80f43U, 0xbc8f855c3b2a1b30U, 0xbc2340b43d3e0e32U, 0x3d40b6973c26dfdfU,
  0x3d8360873ba78aafU, 0x3d9be6c73cb6e502U, 0xbcb2b9f93d609596U, 0xbd5da0753d4943a5U,
  0xb8e89c3abd487b2aU, 0xbd5e855fbb60b63fU, 0xbd30c4033d44c7d9U, 0xbd3e81a2bcaa319cU,
  0x3b827e3d3baec652U, 0xbb49de853bd9fd1fU, 0x3e3663003d83439bU, 0xbb881510bc65e30bU,
  0xba52b97cbbbde280U, 0xbcca75dd3ca69ee7U, 0xbcbab0ddbd4da5faU, 0x3d843c5f3d1ac0ebU,
  0xbd3c9dca3dc6104dU, 0x3d9ac5263d843773U, 0xbd7469793d8d7a4aU, 0x3cee17a83dcaa643U,
  0x3d8182673d192e89U, 0xbcdefe95bd5da21aU, 0xbbf7a0903d8678cbU, 0x3d273b61bcc623ceU,
  0xbd7e02093d6035a3U, 0x3d9442d1bd087fb0U, 0x3d3d7948bd32dc3fU, 0x3d87c15d3b17f0e4U,
  0xbd7044983cdb3750U, 0x3d97a2233d479ffbU, 0x3d338236bd8d6792U, 0xbaf271993d966b62U,
  0xbc7200e5bd140a22U, 0x3d5023a33cd51c5bU, 0x3d90c83ebc7c4a59U, 0x3d0ad173ba891ba7U,
  0x3db16d503d6fb2ccU, 0x3c2b70263b5a3d4fU, 0xbd1d30273a678b94U, 0x3c2d910d3c817c09U,
  0x3d84daeb3d907fe4U, 0x3c2689403db692c4U, 0xbc23ad0bbbe78611U, 0xbb95a9a5bd81ca9dU,
  0xbd99585ebd399b8dU, 0xbc8a6af63d9c9c66U, 0x3d3820283be9018cU, 0xbd0670babd1d4fdcU,
  0x3d5d832d3c913abbU, 0x3d1e80cc3c0284d2U, 0xbcbe6f183dadfdf9U, 0x3dbf416bbcc06decU,
  0xbae3c09c3d856fadU, 0x3d7eb7da3c0ccca7U, 0xbcb8e4e93d022e68U, 0xbce644263d136b8cU,
  0xbd8000653d22d11bU, 0x3d123646bdbce64fU, 0xbd10d57bbc80652dU, 0xbc0f8ff43d225022U,
  0x3d4826963d863d35U, 0x3d3ecaf43c2e6843U, 0xbd57a566bbab0dfcU, 0x3d8f2e0d3d09cac5U,
  0x3c7931dabbac4441U, 0x3da682e33d66016dU, 0x3d95dabfbd21bfafU, 0xbcc7831f3e084e39U,
  0x3a209bb0bc3647a7U, 0xbd1803c63d7a755cU, 0x3d88b9c4bd35a2c0U, 0x3be82a00bc153609U,
  0xbd5bd8483d06b8d4U, 0xbd1d71bbbb8e23a4U, 0xbd0395703d0f2892U, 0x3c9506c4bcafdc0fU,
  0x39d251d53cdc8f83U, 0x3b073ed43c8f39e0U, 0x3cd758323d903de9U, 0x3c7175c73d7b1099U,
  0x3d4da1c8bd5ce802U, 0x3ca93293bca54af4U, 0xbd3c85df3d428639U, 0x3d86f14b3b15d991U,
  0xbd2fc342bc03bc5bU, 0x3d7ca9733dade73aU, 0x3d70a8513aa76015U, 0xbd30e245bd2fb8afU,
  0xbd5a9d683d2a10f6U, 0xbce34479bc9fd8a9U, 0x3dae995bbc9290dbU, 0xba5b81b739c345e2U,
  0x3cf0252f3d6f0297U, 0x3c04ca5b3d05d005U, 0x3cdb45b13d4d5e1aU, 0xbccf41f3bc34c661U,
  0xbb474b65bd7cf348U, 0xbcddacfd3c4c7996U, 0x3d64843fbcd5a5e5U, 0x3b4dd43cbbe29d89U,
  0x3cce71933d6d03e5U, 0xbd50714e3cde83e2U, 0xbcec3acdbd1ffed7U, 0xbc8058ce3c971b40U,
  0x3d07b98f3d9523cfU, 0x3d136c583dea0b18U, 0x3da428e03dba7c62U, 0xbda58997bc74cdfbU,
  0xbd6f6939bcbd004cU, 0x3c94cbc3bd338705U, 0xbd960c58bd5c258bU, 0xbd4b085cbd36e6fbU,
  0x3d7cf40dbcb6be90U, 0xbd5c167a3c1a5fc1U, 0x3e0d1e7fbd192635U, 0x3d10c6803cd9575cU,
  0x3dc097f13cea6132U, 0x3d916288bc86fb00U, 0xbd93ee6cba92ad07U, 0x3c971ec8bce9e3d8U,
  0x3d21e9f6bbd74ec3U, 0x3d5e70a63d8b54bcU, 0x3d0e47833d66e725U, 0xbc23f9533cc04731U,
  0xbd17632b3d2fb1eaU, 0x3c3f6d61bcfca7bfU, 0xbb3af9023d37f8b5U, 0xbcbc47a23dd3ea82U,
  0xbd2ee928bd77e9c5U, 0xbd88e3d23cfdbafcU, 0xbcb85691bd01d9a0U, 0x3d22f4a2bdb368a7U,
  0xbd36d47a3befc9caU, 0x3bc82f253d052a02U, 0xbdbbdb593cac98bfU, 0xbd1819653d6f4aacU,
  0xbd1fdd033d69b01aU, 0x3d44d3b03d889e79U, 0x3dce27093d424844U, 0xbcc156633ce95094U,
  0xbd96d0583d0492cfU, 0xbd4797b73cf63657U, 0x3c7f28743c9c346cU, 0x3bd22d92be151a75U,
  0x3b067b22bbb4cc13U, 0x3d49b88b3d60784eU, 0x3c66ea613c6f43d3U, 0x3d51fc263ddf8e8aU,
  0xbd4433b93d2774a9U, 0x3c3001b4bc947f3dU, 0xb96b5391babcde6dU, 0x3ca523883c90ddcbU,
  0x3c713b093c534f79U, 0x3d92fc93bd6bfdeeU, 0xbd111a36bcff37d9U, 0xbcc98f6e3d4391b8U,
  0x3c8b6e82bb6d0afdU, 0x3d2d7ccdbb8b7059U, 0xbc8176143d38424bU, 0x3d5e7107bbc04715U,
  0xbd0d1c78bd8772e2U, 0x3d5377843c7a7facU, 0xbbde0e84bcfe1592U, 0x3d46265e3d9b72a5U,
  0x3dbd68d1bd156472U, 0x3d5019833db42a87U, 0x3d4af5f93d3fef3cU, 0xbb0ec0763d7956c2U,
  0xbccca602bc93eadaU, 0xbcaf25953db784f6U, 0x3e018057bae4d75eU, 0x3dadd834bd16636bU,
  0xbd0c6b43bca9d717U, 0xbd93efc3bcf3db17U, 0xbc2a45b73c3ef9dfU, 0x3d068e8f3dba629eU,
  0xbd8a34ddbc82fa5fU, 0x39bc72d83cb6df8eU, 0x3c77c6533d531925U, 0xbcc4f9f93c1e5014U,
  0xbc34e67abb96f5d9U, 0x3d2c33b6bd6dcc95U, 0xbd7375a1bc1eab64U, 0x3d7057ce3b5ba990U,
  0xbb8b80223d95e9c2U, 0xbd8153b43dc57ec6U, 0x3c37f4653d5b1e47U, 0xbd1f36ffbb72029aU,
  0xbdebdafe3d56e513U, 0x3d2e91f7bcfd070dU, 0xbd84f82fbdca3c9eU, 0xbd24fcbdbd8d05ebU,
  0x3d755cda3cc4bb34U, 0xbcc5fb563db68f9fU, 0xbd8bbeb73d1d668bU, 0x3ccb7822bd755bf1U,
  0x3ca5b978bc7a4d8eU, 0x3d203a52bd408772U, 0x3d0d4db7bd2b5053U, 0x3dae6665bcc6f2d5U,
  0xbd8fc9023b4e7fc4U, 0xbc9d88733ca41917U, 0x3bdd60e13d2d579dU, 0xbc5e8beb3d57f608U,
  0x3d1aba453d8125d1U, 0x3c303badbb5f2ca7U, 0xbc413337bd4e3972U, 0xbd48b748bd383974U,
  0xbd698aa93d8fba76U, 0x3d0b57a33cdb1a4dU, 0xbcd739b23d5312f5U, 0x3df7029a3c7a8626U,
  0xbd5f7b22bc158fedU, 0x3c3b5d6dbd3a8969U, 0x3cbb10683d5c125dU, 0x3bcd60223cb09877U,
  0xbd9c484abd2f6042U, 0xba72565c3da5d646U, 0xbc212c263cce3c45U, 0xbc705e513d5b1140U,
  0x3cf9a391bd7b0247U, 0x3ca600313ce89eaaU, 0xbc30bb63bd51cab4U, 0xbd873941bd90ccc6U,
  0x3d948a3b3d6f8dbfU, 0xbd5fc3c23cdcbbc8U, 0x3cee670c3d895568U, 0x3cf097123d5b53a3U,
  0x3db9e5c33c8a72eeU, 0x3d856bf03c1e4408U, 0xbb234245bcd9142eU, 0xbce49d9ebc4f8285U,
  0x3d9d6f4ebd845ad3U, 0xbd0465643d23dd43U, 0xbc17fb67bcecfc6eU, 0xbc9165933d262d95U,
  0x3d9cdc703db3bb1bU, 0x3d9d0574bd067f55U, 0xbbf0b2ae3ddf27a3U, 0x3d4bf7fc3e0143b8U,
  0x3d78423b3d43f614U, 0xbd0147dbbcfb3dabU, 0x3d1f37f33d1c0714U, 0x3c5fc2dc3d0c6d26U,
  0x3bb97bf33d81bd43U, 0xba8210493cc41dfcU, 0x3b37312fbc63a74aU, 0x3ca249353d6790cfU,
  0xbd46f33a3d3f1f73U, 0x3d9458f9bbac2a5eU, 0xbdcd468c3d9c862cU, 0xbd2355033d8f9880U,
  0xbd412781bb770a8aU, 0xbd95b282bb9eb6baU, 0xbd52b8493c84b962U, 0x3c2345e53d9ecbceU,
  0x3a94cb1e3d4e2a5bU, 0xbc244c96bc9d49b1U, 0x3abc35bcbcc77909U, 0x3d9487fbbd1307b1U,
  0xbc54ce30bc3422f9U, 0xbbafd3603daa68a3U, 0x3c475f813d3ae7ebU, 0x3d72e3083dad47bdU,
  0x3c351ff9bc6435a2U, 0x3d227bc4bc1c9ed2U, 0xbde3b306bd0269ddU, 0xbc9008963d7b7484U,
  0x3d68ad813c65a768U, 0xbcaaae4ebd529abcU, 0x3ca0af003c7a78e6U, 0x3d739bbebd6348e3U,
  0x3c742c993d59fc24U, 0xbd22def13d47a92eU, 0xbc1eb4a93cca38f7U, 0x3bc269b33d177ccfU,
  0x3d6751463ccde94dU, 0xbc0e41e0bc972947U, 0xbc33b48eb8a5bafeU, 0xbd6b7b8c3c20103fU,
  0x3d476e9d3d50704fU, 0x3d8e196c3c798cc3U, 0xbd73a0213dc9388aU, 0x3c42697dbd505ef3U,
  0x3d09f1393d0f3003U, 0x3d8230733d8a34c8U, 0xbd02dc6f3baf7172U, 0x3d7c0594bc1f87a5U,
  0xbca9a7b43b1ad0ddU, 0x3c1f76e63daee12dU, 0x3d3f259f3cee7a35U, 0xbd8727483ab3c0caU,
  0x3de585e4bd4db4d7U, 0xbd72dfee3cab1f31U, 0xbc56df19bbcc1f1aU, 0x3d7b4f223d6616efU,
  0xbd3e77b23dd6c7d5U, 0x3ba1a3ee3d78a840U, 0x3bf9d2393cedc1a9U, 0xbbaec39abd5025b4U,
  0x3d3dfdba3d81ef05U, 0xbd07e9c43cfe350eU, 0x3dabd7cabd037b4aU, 0xbd903f373dd79d5bU,
  0xbb460ec2bcaea04aU, 0x3c81e0033c806ebcU, 0x3da416da3d85a2b5U, 0x3dd414dabdb96a8aU,
  0x39ca7ba93d40a32fU, 0x3ceafd2ebbf974a2U, 0xbd1cb9023caf5bfaU, 0x3d0dbc36bc1702daU,
  0x3afd47673d9fe163U, 0x3cbf29ad3db989a9U, 0x3e08499ebc1cd575U, 0x3d0406fcbcb4b084U,
  0xbcb2621ebcbf9da2U, 0xbd7e8baf3d21c4eeU, 0xbd38d255bd596d0dU, 0xbc52168dbd48a4d8U,
  0x3ca43af73c6f434dU, 0x3d6aef693d4bef4fU, 0xbca008b0bcab28feU, 0x3c9c06cdbc14a76eU,
  0x3d711d083c5a8810U, 0x3ad823673bf12794U, 0xbc6452033d7e3c98U, 0x3d4400acbcdbe9b1U,
  0x3d3800debd5768bfU, 0xbd0a2ec03d6f1304U, 0x3dde4aacbcc264feU, 0x3c5e4e733c95b93dU,
  0xbd024972bcf32db0U, 0x3aadbf593d4131faU, 0xbc7187fcbd9f04d9U, 0xbc1a3960bd8539cbU,
  0x3d7f62d33d153094U, 0x3d2932923d5dba4aU, 0x3bc171383d883c8fU, 0x3ca1d6353daca112U,
  0xbc794bf3bbcdf469U, 0x3b9ec34b3d99b653U, 0xbd23cd3bbc27b646U, 0x3c18748b3cf8a6a4U,
  0xbcf14c3f3db49c2fU, 0x3bd860c0ba5c9613U, 0xbd4efd6dbca10eeaU, 0x3d5aabfd3d55eccbU,
  0x3d48a20d3d0db9eeU, 0x3dac1ec8bcf10621U, 0x3d3d4d813d5fa2e8U, 0x3a84aac23d1f9b46U,
  0xbcb45866bd137650U, 0x3d6d55133d944265U, 0x3cf7795f3d721b7cU, 0x3db81a403d84cfa0U,
  0x3cf5f8f8bc89ac1eU, 0xbd4efc7a3d4d4f46U, 0x3c6c15953d2d1531U, 0x3d21e9ca3c83d549U,
  0x3c8bcded3c872f4aU, 0x3da7b3f1bd1e2aa9U, 0x3d005e0d3bd7f625U, 0x3dab4f27bd6a656fU,
  0x3d7eff04bd636365U, 0xbcfe4db03d82032cU, 0xbd025828bc000236U, 0x3d058b863cdcc92bU,
  0x3d74603abd2e04d3U, 0x3d6ee438bd1bff01U, 0xbd7a84ab3c4f3fb2U, 0xbaa82dba3df1f679U,
  0xba325d9bbafece11U, 0x3d7fbcc73d8b17faU, 0xbc9555b23d921258U, 0x3d296e05bd24b7d8U,
  0x3d91fa71bd3f6361U, 0x3c3c399f3d8806b5U, 0x3db2e3c03c9a9c25U, 0xbbbb2a65bade2225U,
  0xbac492ae3d401801U, 0x3d0453633b4d0438U, 0xbd52d59d3ceb6e96U, 0x3d0fd97a3c5450c5U,
  0xbd816f14bd01c04eU, 0x3c8fb0423d95609bU, 0xbd3a121f3d4ecfa4U, 0xbc578ad23d82e65eU,
  0xbd3fc854bc1ffccfU, 0xbc857ee53c9388bbU, 0xbca780c1bcf806f7U, 0x3ddd04e7bc91ae49U,
  0xbd6266093dae06c5U, 0x3b9087483d10b331U, 0x3cce01643d1ed859U, 0xbcd52f9bbd5dee10U,
  0xbd1697f0bd3a26a7U, 0xbc95d8063d7508faU, 0xbc7fb94f3d87a6eeU, 0xbd5f4b37bb86c9d9U,
  0xbc345b243d85ec4bU, 0xbc92a9a13d5b9d07U, 0xbc9604493d92e136U, 0x3d676eea3c616dfeU,
  0x3d8bd0533d3b3f32U, 0xbd271a5d3dabbb96U, 0x3d12e081bce36ff5U, 0xbae220bd3db18f50U,
  0x3d1345d23d903b67U, 0x3db4558f3c183bf6U, 0x3e3b6e723d07086aU, 0x3d2ba957bd182069U,
  0xbd690f4abd044b1aU, 0x3d357ea43ca01338U, 0xbc0b11523d7b186aU, 0xbd0f08db3d02ce0cU,
  0x3d459b6eba2635ebU, 0x3c5f438d3cc8a2caU, 0x3dbd15d53db622adU, 0x3c59c224bc5d8561U,
  0x3ca54e9b3d9a23f1U, 0xbc94fc5a3c8efebfU, 0x3d4d7240bd1f38a4U, 0x3d919d513cb2ba22U,
  0xbd7a9af13cd33b09U, 0xbd1cec9cbb4b4bcbU, 0x3d20ba64bcec35e8U, 0xbba99c11bd010b30U,
  0xbd93d9a3bbb2cc1bU, 0x3c3e5f3a3d254e5aU, 0xbcc1d2e0bd96bb36U, 0xbcc0debcbcd03b1fU,
  0xbb6bce9b3c6a68edU, 0xbcc0e2a63d0eba58U, 0x3c1230a4bc2914a2U, 0x3c0539883ce1a800U,
  0x3d8fadb23d8ae2c9U, 0xbd8330bdbd210a8bU, 0x3d2566a13d60a63dU, 0x3d3214233d96e727U,
  0xbc8d26db3d8ffdf8U, 0x3cec9bcabd50f415U, 0x3d4b1d06bae3ec18U, 0x3bedab53bc7cdfbaU,
  0xbd71d1403ccae5e7U, 0xbc5510db3d82b170U, 0x3daa7c85bd5b9a27U, 0x3d9a18d63c5f5aadU,
  0x3d98ec5d3db1074dU, 0x3919fb6f3d5f5943U, 0x3d30c67d3d7b8460U, 0x3de00ad23d610a93U,
  0xbb42ce1a3d9f2bbcU, 0xbc83df7d3c97e935U, 0x3a32f6553dd647f9U, 0x3cd62f3abcd8cfa3U,
  0xbd3f9a053c5aa4d2U, 0x3da1c5f5bca3d548U, 0xbd4b6e393d822b17U, 0x3d81fa413d9277ffU,
  0x3c4607273b272e0eU, 0x3d5eb9fc3bfb5a1aU, 0x3d2706493d9842c1U, 0x3cce8b7f3d34418aU,
  0x3d4bae14bd3c4f6eU, 0x3bbe3433bd370328U, 0x3d3b71fa3d704fcfU, 0x3cba1e9e3d96d8d8U,
  0x3b98e09a3d63c82aU, 0x3d69fd443db2b329U, 0xbd0552453c5704a6U, 0x3b1a49d3bc0be8e5U,
  0x3d60de4b3d53d7ddU, 0x3dba16f83a3842a9U, 0x3cd747373d545ebfU, 0xbc6e61923da41327U,
  0xbc34c8523cd0586fU, 0x3c3d14f63cda94a0U, 0xbd004cbd3d5e24f0U, 0x3da074ac3c9442e5U,
  0xba6c72c43bf546f2U, 0xbb5cacaa3d7dc8cdU, 0x3d5e56843d81fb4cU, 0x3dbeb8043d1b2325U,
  0xbd2e68b33d883876U, 0xbd18a850bc3dc001U, 0x3dae61de3d7f9508U, 0x3bc18b02bc19f814U,
  0x3d8581c53d987c8cU, 0x3da18a943cc2c905U, 0x3c99ac98bce9bafeU, 0x3ce5243abd126a01U,
  0x3d7e9a1bbd04fdc3U, 0xbcfe26f23d3ecc8bU, 0x3d1f9f63bcbc1ea2U, 0xbc7d75603d48e05eU,
  0xbd4355263d22cdc1U, 0x3d703bda3c22908dU, 0x3c674bcabc4f3e5eU, 0x3d8a99d93c4e7a91U,
  0x3d98ec5ebd56a30aU, 0x3bef6b2c3b4e8dc2U, 0x3cb67786bcab95c3U, 0x3d98be313ccc4995U,
  0x3b875533bced6062U, 0x3cce45923d5296b6U, 0xbcd3c7b13cc389e0U, 0x3d7b8073bc6d7277U,
  0x3c37fc55bd573240U, 0x3d83a0f0bcd149bcU, 0x3db3924e3c565b13U, 0x3b40a15e3d9919d8U,
  0x3c6189bcbd1784a8U, 0x3ce5b6a7bd3eddc6U, 0xbd34e9143d6c0f48U, 0x3d9b9d9b3dc388ceU,
  0xbd2847b83d861544U, 0x3d8dc4a13d036d14U, 0x3d1642ff3dcd9eafU, 0xbd96275fbd01e1ceU,
  0x3d891e2d3d3777dfU, 0x3cf7c111bc2c7b3eU, 0x3ce293463d38b78eU, 0x398da3293d42fac7U,
  0xbcedb3243d49b8e8U, 0x3d5da0883d2f47adU, 0xbd0597c4bcd85382U, 0xbd0906413cb89ed8U,
  0xbb824eca3d25f2c4U, 0x3d26ab37bcf1e88cU, 0x3dff4f983bcdaddbU, 0x3c960f53bc87770eU,
  0x3d00b9fd3c531761U, 0xbd9c25803d079d02U, 0x3bc6b68fbd426616U, 0x3de2f3b2bcd65bc8U,
  0xbdb36c683d3d1bfeU, 0xbc2f343b3db50331U, 0xbe2795163d1f1fe9U, 0xbd2ae4eabca8a58cU,
  0xbbab74023d88c3dfU, 0xbd0acbddbd329a2aU, 0x3d3fd0c3bb9cbef2U, 0x3d8721833dd60f73U,
  0x3d10ce323c8d6a20U, 0x3d73248d3da88832U, 0xbd037c18bae89f0eU, 0x3c9734b2bceeeef2U,
  0x3dbac306bbde84f9U, 0xbd916e563d5bb85eU, 0x3b8f287a3d7e395dU, 0x3d78ee20bc8ec741U,
  0x3dd4f6da3db87678U, 0x3d86aa85bd0218f4U, 0x3c37232dbd2f49f2U, 0x3d1a0b4fbc7856bcU,
  0x3d7b4bfc3cc62a9cU, 0xbcbcab2e3cf598e3U, 0x3cdd1a3e3d725a42U, 0xbb343d84bd27a445U,
  0xbd79bbd43d4b2060U, 0x3d9ad54c3d2c17adU, 0x3d219dff3dc3f88eU, 0x3d8d38f63d823741U,
  0xbcd09a573d9d9e0bU, 0x3d94782d3d89dd69U, 0xbd23b087bcfc7353U, 0xbd61f8e33cc9ff10U,
  0xbdb4f3403c2b1df0U, 0x3d16df743d222ebeU, 0x3d8d3d513cc5c814U, 0xbccb6c97bcd5b97bU,
  0xbcfbbb603a8251b4U, 0x3d458e363d1d4f98U, 0xbd1c274ebd10ff4fU, 0xbcb63ebcbbb64339U,
  0xbcca4c9f3d597f67U, 0xbcaff0ee3d78ef44U, 0x3c1aca07bcd36eb4U, 0xbd0ed535bd66cf12U,
  0x3da010fcbd297de7U, 0xbda0f2483dc3b687U, 0xbcc5cae0bb48186cU, 0x3d25e3e73c86917eU,
  0x3d1b08ee3dc89d87U, 0xbd56274a3d048301U, 0x3d8fc041bc874bc5U, 0x3d63f2e8bdb376beU,
  0xbcb50d973d931a8bU, 0x3d48f9653d9319afU, 0x3d3f9d7b3dabdf12U, 0xbccaffff3d79c51aU,
  0xbd56ab4a3cd54ca0U, 0x3b032bf33b6f6f68U, 0xbce0ea753d9099beU, 0x3ddec52e3cd1c358U,
  0xbce626073d722e49U, 0xbca5add73d888a73U, 0x3d70940d3d6d0d08U, 0xbd8f88ed3d88a090U,
  0xbdb057a03c34967eU, 0x3d8649073d9ee252U, 0x3e1c91cf3d2f2b96U, 0x3c97954b3d9b3bfeU,
  0xbd8318ebbd899213U, 0x3c9da98f3c203b5aU, 0x3b81f8d8bd1e24d2U, 0xbd31c4f6bd125274U,
  0xbc3fe2623d4b3b7eU, 0x3c98d940bd068a53U, 0xbd6cd78fbd178d81U, 0xbb8375323d039c74U,
  0x3d0d3981bb91729fU, 0x3d1540ff3ada6693U, 0x3dde3f14bcd1002cU, 0x39fad5e7bc9bdb84U,
  0xbd8366283cf1918eU, 0x3d05757c3d922755U, 0x3cdcf4b63da70537U, 0x3c96d1793d5943b4U,
  0xbc928f7f3cd20ca8U, 0xbc62fc713d90eae4U, 0xbd0033e3bd2f8f43U, 0x3cb37058bcdd24d0U,
  0x3d7b3b9abca4c08dU, 0x3c5794a8bcc3ef6bU, 0xbd4791ffbcd32e06U, 0x3c9c5fadbcc6194bU,
  0x3dadf313bd2eae62U, 0x3d7b2b50bc093ac5U, 0xbc46c1fd3c2f3b0bU, 0x3d8264473d5a98d1U,
  0x3c7a6b523d6f45aaU, 0x3c8058c7bd159309U, 0xbdbacc52bcfb8779U, 0xbd085c573db667fcU,
  0xba8ec2523cbdd9f9U, 0x3d25421e3d544468U, 0x3bee7727bc4c07c5U, 0xbce497a8bcbdd211U,
  0xbd1b3c3f3d2f8250U, 0x3d79811abd15104cU, 0xbd3882173d09d426U, 0x384453423c4a0d40U,
  0xbd6b15613c6deb47U, 0x3cb761b63c30de29U, 0x3da28f573da4d172U, 0x3caf0aaa3c42c54fU,
  0xbcfc82a4bc1dd63aU, 0xbb98c75b3d589d4fU, 0xbd518ffd3d8dcffeU, 0xba0f63df3d5854e3U,
  0xbc369c123d01d5ddU, 0xbc3ecb333d98f9aaU, 0xbc4a4e02bd649bb5U, 0x3d782939bd853b8fU,
  0x3dce4044bc145166U, 0x3d20d3963c9b0917U, 0xbd3d2fb63c693657U, 0x3d6ee3da3d262fa8U,
  0x3c20ec0c3c1e7df0U, 0x3bf279883d5381c4U, 0xbb9365d13d3a59a5U, 0xbd3fac3cbc650665U,
  0x3e0782b63ce64cabU, 0x3a9db3e0bd5bacdeU, 0xbc69dcbfbba117d5U, 0xbd16c8063bdaaae5U,
  0x3d19a49abccef1fbU, 0x3dc5960e3c0f3af9U, 0xbd7faeb83d06bf7dU, 0x3cadb1803d23e2f2U,
  0x3ce8fa92bd469e21U, 0xbd45481aba624bf6U, 0x39a3e9a6bd375a11U, 0xbba1ecacbd1727e9U,
  0x3c7279a23d6087acU, 0x3d6f2f9abd2a7dceU, 0xbc9bb04c3d4c0a23U, 0x3d058d32bd3623d1U,
  0x3caa2ecc3ccc9daeU, 0x3c32cf493d455010U, 0x3d69e3bdbcafb493U, 0xbbcbcde6bc1e7d1aU,
  0xbd0b2e71bcad7ad3U, 0x3b833e36bca262fcU, 0xbcf31a4e3b0bea19U, 0xbc9b03493be250f8U,
  0xbd6dcdd43ac78ddbU, 0x3d7016313d5d4eedU, 0xbc6dcc0cbd138be2U, 0xbd9c48e1bd8586b4U,
  0x3ceb5c85bd90cfc2U, 0xbd2ecf393d1f7385U, 0xbc8c45f0bd9b8a4aU, 0x3dc336c43d8b56f7U,
  0xbdbb023f3cb67017U, 0xbccd964b3d166c4eU, 0xbe248c863d39cbb0U, 0x3cbe90bb3ceb7772U,
  0x3d70dbbe3c0aed75U, 0x3d0791463d4da01dU, 0x3d2f167f3cd46877U, 0x3d8354b73e168a3bU,
  0x3cb9084b3cb0719fU, 0xbd1a4b743ce86c8cU, 0x3c69d5c0bc308035U, 0x3dbb41b6bd7c6e6aU,
  0xbd23be763cbf0fc1U, 0xba8d77aa3da2ae92U, 0xbd10ddeb3dcac710U, 0xbd5dfd1a3d49daf8U,
  0x3d8e6f85bb9587a8U, 0x3d8d0d7d3de72730U, 0x3e17f6b3bbe2be00U, 0xbd230692bd7f304fU,
  0xbd39db6c3b118bfcU, 0xbd0fa49d3d1e6967U, 0xbd09c7c3bd9112f5U, 0x3b0c85b5bdf8dc24U,
  0xbc083a1b3c62e842U, 0x3d85c9ce3d547f07U, 0x3b372e23bccecd14U, 0x3d5ac1eb3dabab90U,
  0x3cbcdda03c7afdd2U, 0x3d6bbd76bbe591feU, 0x3d17faf03d32fb55U, 0x3cb07b03bcbccf3eU,
  0x3cbcfa443d337c74U, 0x3d127daabd0af052U, 0xbd857fe2bd0234b2U, 0x3cc8f1d63dd6a4c6U,
  0xbb56c470bd486358U, 0x3d91b09dbd3e9443U, 0x3d72a99b3c833984U, 0x3cd12c84bd0f7226U,
  0xbca1f60b3d240ec2U, 0xbba7e3ea3dd3dd87U, 0x3e12ace5bd6e759fU, 0xbd418a553c617e6bU,
  0xbc6551b9bb8f9972U, 0x3d2c0b353d88eae4U, 0xbc0dfaf1bd804d5aU, 0x3e02e19d3d677765U,
  0x3d1d7fe23cee1689U, 0xbd15b0063ca2175cU, 0x3cae67c73a27417cU, 0x3da0eea9bd89b3deU,
  0xbce74106bceb18afU, 0x3d1a8a383da83f08U, 0x3c9a39f33da417c1U, 0xbc992d373c4211daU,
  0xbb5b0ffa3cc14912U, 0x3d3445a7bccce088U, 0xbd894a0c3ba5cbadU, 0x3d0a7f13bdcaab61U,
  0xbae09f533d753353U, 0x3d16a7323d4bfd76U, 0xbcfe99be3cc6c596U, 0xbdfd33d33cd249d3U,
  0xbc1a4ab6ba23e220U, 0x3d4d4f3cbc7197fbU, 0x3da22a743c3653deU, 0x3d73ff863ce355d3U,
  0x3d0369f7bd9f2f59U, 0x3dabfefd3c282c7bU, 0xbca448353d2e6bb1U, 0x3d0fcbd0bdc4847aU,
  0x3d13dccd3c519c3aU, 0xbd8059eabd2e2fd0U, 0x3d88685d3ca54fb5U, 0xbd6754023c34ea36U,
  0x3b6b3565bd4986eaU, 0xbc0623a33c71b995U, 0x3cbb95c83d049d64U, 0x3ac61f7ebcf6646aU,
  0x3dca3b443d29ade8U, 0xbc00e0943e0e3f47U, 0x3d525d57bc77ea5eU, 0x3d46e46abcaf24adU,
  0xbc520db7bc3128b9U, 0x3d2bdc76bc4c3c43U, 0xbced9216bd287727U, 0x3d391df4bcf30b69U,
  0xbd0c2086bc95f99bU, 0xbcd8e664bd6df2f5U, 0x3d8942ab3d3c37afU, 0x3c57c93ebd963e10U,
  0x3cb6aed63bb78e54U, 0x3c143469bd264085U, 0xbce2d3233a2af6c5U, 0xbd740e443cd5c2dcU,
  0x3d1854e83caf4ce3U, 0x3c0249d5bd0c165bU, 0xbbe01eb2bb943bd7U, 0xbd3de5b1bd784435U,
  0xbe0274b43c27064cU, 0xbd023eb7bc5fe108U, 0xbd362f26bd791160U, 0x3dc4b60d3c489e95U,
  0xbd076efabd3eab52U, 0x3d428c983d4b673bU, 0xbd0e14353c36bacbU, 0x3db4ea003d6064bcU,
  0x3d19a908bb6ef27dU, 0xb91445183d0cac42U, 0x3ce78e0c3d7d8730U, 0x3cc876983b937098U,
  0x3d27fc3bbd022ba7U, 0x3db2826cbc761caaU, 0x3d56552dbbc7cd93U, 0x3c44ea333d8152f7U,
  0x3d378645bb0dbbb2U, 0xbcf5bc843d55ba40U, 0x3cb94294bd02d993U, 0xbbacfd93bd94ab27U,
  0xbd0f58cdbd6158fcU, 0xbd2e52c53a9a6085U, 0xbc1c16bb3b3541beU, 0x3cba1b8b3d1004efU,
  0xbd08454cbcfbcd61U, 0xbce0bb623d9434ddU, 0x3b72a3183dc51fc9U, 0xbce9a9be3c55ad03U,
  0x3d795745bd2d58a2U, 0xbd99720a3cec154dU, 0x3e13d4c73dba33abU, 0x3d9a528ebcf5b749U,
  0x3d55955ebd15cb99U, 0x3cda04e43d18677fU, 0x3d5ee19b3ce1ebb2U, 0xbb7abf83bd05eb02U,
  0x3d2f31003cec6565U, 0xbd5d88fa3d454b6dU, 0xbc4b00503ca5fd7fU, 0xbc80ddf4bd477d9bU,
  0xbc9faf623c1268f4U, 0x3cf5ba3e3cdbdf59U, 0xbca3fe2bbd53e1d2U, 0xbcc7e2c7bd432346U,
  0x3d8e21fc3d7eb581U, 0xbcaabde63d7c3e67U, 0xbcb01d08bd4d8f26U, 0x3d432c10bd6bf90eU,
  0x3cac20fb3bdb7f57U, 0xbce6b3ddbb8073d4U, 0xbcbbc0fabb625f05U, 0xbc27fa7b3dae84fcU,
  0x3d39c9b73cbd5293U, 0xbd358bf33d4ad1d6U, 0x3d5d1e183c2c4548U, 0x3a18e7e6bd5bee11U,
  0xbcd8856dbdea3a75U, 0x3c1ff177b9a00b17U, 0xbd0641d0bd3b6273U, 0x3d8f1d0f3d766f16U,
  0x3d18535ebd36ca8fU, 0xbc08ce4c3c986dcdU, 0xbd0c77abbc22bb39U, 0xbc0db1e9bd74aaebU,
  0x3d1472d03d7cf4f8U, 0xbc341bdebd09acc3U, 0x3d5dd52b3d9a222bU, 0x3dc3ad0d3c669867U,
  0xbbbb6b05bd4f0d0dU, 0x3cd383663d56118dU, 0x3d187acdbd110eceU, 0x3d0f91ff3d9fc342U,
  0xbda2c2613dc995b2U, 0xbd160fcebd5a168dU, 0x3dc9b3a33c7c647eU, 0x3b29f9113d07c0e8U,
  0x3ba1e5f1bd58047fU, 0xbcbfd3353ced8b5dU, 0xbce14e793d28002fU, 0x3bf97f0e3dbc19d3U,
  0x3d29ff2ebbf047fbU, 0x3d16d8643cc499a6U, 0xbc1bc7f83d25bd23U, 0x3d5bb235bd9e9cabU,
  0x3d73ea403b89f71dU, 0xbcf574543c407593U, 0x3d040caebd3622ffU, 0xbd1ce37ebc684180U,
  0x3cb64d253c1df2e1U, 0xbd516c053ddf9cc6U, 0xbdba3aefbda1a5a9U, 0x3dd939ea3c9cbf9dU,
  0x3d77a9c53d5be784U, 0x3b7151c73d07e10cU, 0x3cb4fce63d8af3beU, 0xbc79d578bd683868U,
  0x3d225b4d3d8ecbacU, 0x3c2a8e58bad0e98aU, 0x3b40a9d23d4f1f62U, 0xbd4c67673dbced11U,
  0x3d3316d13c77d105U, 0xbccbd9c83d8cd3e3U, 0x3d7d76143d630324U, 0x3d90f6d3bd63a878U,
  0xbc924bcebc162a36U, 0x3d6011e4bd25dd39U, 0xbceaf5b03d9dd3e5U, 0x3d5fef34bcebc193U,
  0xbda260293d467656U, 0x3d7b5f093d02a7adU, 0x3d7fbfb4bda7e166U, 0x3d2a5843bc1bdca4U,
  0xbc5ff6e3bdcd2956U, 0xbc28400b3d791954U, 0x3bc9c443bcb5574aU, 0x3d82955dbbfe2249U,
  0x3d3cfb363c2e98fcU, 0xbca1db82bd5ca36eU, 0x3db8fbc83d9ad40cU, 0xbd79d42cbc60e95fU,
  0xbcdb5c3cbb809e0bU, 0xbc054ed5bd1aef39U, 0x3cf7ed663d56810dU, 0x3d0ece563d406d83U,
  0x39325c403b3f5fefU, 0x3aa002b23cb082d3U, 0xbdb342783c442c2aU, 0x3d886dccbd170076U,
  0x3b9b0cd63cfe346cU, 0xbd6f451dbc1d3555U, 0xbd6c99adbb73e117U, 0x3ccff6b23d5f26a4U,
  0xbcbd72343cad7b93U, 0x3d533c40bd34ebafU, 0xbd557f95bd0e8296U, 0xbbc1d65dbd15f51bU,
  0x3c971b9dbce5414eU, 0xbd8c6f473da3b67cU, 0xbbe871b9bcab9e62U, 0x3d7385213db655f4U,
  0xbd45ab60bd534b51U, 0x3dd1d37ebd5fb89aU, 0x3bd54ae2bc0f28ddU, 0xbcade9abbc85b643U,
  0xbd9be004bc56f01bU, 0x3d8d61aebc269af4U, 0xbb9bf8dabd6fb57fU, 0x3ce58a82bddb7a3bU,
  0xbcb699543d885746U, 0xbc9169eb3d1ba890U, 0x3d80ce3ebc8f6ff3U, 0x3c2f4e1f3e1ef474U,
  0x3d1e55aebca5afaeU, 0x3de91985bd6f16f7U, 0x3d7674603d45eab0U, 0x3d9aa1a53d25a284U,
  0x3cbd6ef6bc1f7448U, 0x3d165c09bc0ee1d3U, 0xbd8023ba3d9d97c5U, 0xbcd6c413bd3b0a1fU,
  0x3d093494bd42ecb9U, 0x3d635c263d261fe7U, 0x3d8cf70c3bbba411U, 0x3d90f4383d44a820U,
  0x3bedaa333cf55766U, 0x3cd7e4d3bd4febfdU, 0xbc9a3db43da4c233U, 0xbc6ccde1bd73d486U,
  0xbc3482353d72f20fU, 0xbcc3706cbd232f93U, 0xbc4ec7a03cbca2f8U, 0xbb5edad9bc3bb147U,
  0xbc64a8343d611396U, 0xbd600d9c3caa0debU, 0x3e14c60c3dedb60eU, 0xbd14f906bd2ed0bfU,
  0x3d431f0c3b4b9e5fU, 0x3c900ab73d9895a3U, 0xbd664fe2bbb35392U, 0xbd5ca4a7bd702665U,
  0x3d80985d3dac69f5U, 0x3cbecac0bcb7fd9cU, 0x3cdf1f8a3d04000cU, 0xbd76430a3cc48964U,
  0xbb5d012a3c24028eU, 0x3da04d013c866f12U, 0x3d19dc30bd89a0e2U, 0x3bb85566bcc67da8U,
  0xbc99df663cc1bb23U, 0x3d54cc4dbd0043f6U, 0xbe0889ae3cd1efc2U, 0x3c62b61c3d5ec8ccU,
  0x3d0aca2cbd034e04U, 0xbd81471a3ca99eebU, 0x3d0112a2bb5b28aaU, 0x3d6fcadc3e201002U,
  0xbd988088bd768646U, 0xbcbdb0aabd118318U, 0xbc3dc227bd8bd34aU, 0x3d73540ebdb3474bU,
  0x3ce9b4253c886375U, 0x3d4bd4193db14a35U, 0x3d18b3c03acdfe37U, 0xbd23c1033d241836U,
  0x3bbf1963bceee1c9U, 0x3d3cd0973dd57563U, 0xbd4b40c6bc0217a8U, 0x3af5b2cd3db4bd8cU,
  0x3d254d34bd1cea3aU, 0xbd96c0183d897423U, 0x3d0f930c3d044374U, 0x3da260c3bce125f1U,
  0x3d4f4b9e3c6fa629U, 0xbd18796c3c56219aU, 0x3d2e1c1d3da5eac9U, 0x3cd943213dc0e235U,
  0x3cf03f233cca0cd8U, 0x3d162c63bcc05b0dU, 0xbc26207e3ceb210dU, 0xbd858ebe3cd8e3c3U,
  0x3c54cde8bca0db9dU, 0x3d1fc3b23de5bb12U, 0x3d135a46bd0ef6f4U, 0x3db6e71d3abca633U,
  0x3c5f07273d076a61U, 0x3c091672bcb701b1U, 0xbd46af2ebd0f647bU, 0xbd0e6fc6bcabd6caU,
  0xbd9304163c65e102U, 0xbc25601f3d80f210U, 0xbd3291273d1b01d8U, 0xbd85d8cf3bfba8f4U,
  0x3bc11b4fbc975cdeU, 0x3bbe197b3d266621U, 0x3d0a102b3cd8fe8dU, 0x3d975da5ba196f7cU,
  0x3d21e944bb39ea85U, 0x3c9d0dbc3d968f8eU, 0xbd9e1b603d235e09U, 0x3d850de1bd9026b6U,
  0x3d97a9c7bd546c5fU, 0x3c6c56003da27e4aU, 0x3d002837bbbf2dedU, 0xbcdd9c773d24d181U,
  0x3cc7c34b3d34179eU, 0x3d0d6cf13d7675f1U, 0xbb8fd947bca1815dU, 0x3dc53ee4bde7b85bU,
  0x3d75464b3cdf377bU, 0x3cd563febce590c1U, 0x3cc044a93ddd4ddeU, 0xbd9fd12f3c6d1dbbU,
  0x3db2304ebcb3d19cU, 0xbd7c60213d9c90b1U, 0x3e01b7acbd8a0d6dU, 0xbcda787bbd547550U,
  0x3bb658a83ccc9bf7U, 0xbb8fb08f3c7c11d5U, 0xbda0eda2bcf9610eU, 0xbc9e05dabd2eed6cU,
  0x3d892a193d68441fU, 0x3d881fbc3c0c4c61U, 0xbbcff5523d856783U, 0x3d81d0333d80c82dU,
  0xbb2089f43d67a763U, 0xbda6064fbc688292U, 0x3d3165083d86ac22U, 0xbbf13b4b3caaab44U,
  0x3bb202dc3cc837d2U, 0xbd09347c3d414f14U, 0xbd0aa1c93d100d02U, 0x3b0440e13d1c605eU,
  0x3c2ff4273d42306fU, 0x3d487c613d306015U, 0x3d522e71bd1a1d8bU, 0x3b95a286bd40ddf3U,
  0x3d912cf73d946481U, 0x3cd7caf43ca8bc2fU, 0x3df2c74e3d017dafU, 0xbd85a5b9bd388021U,
  0x3de5005fbdab3cbcU, 0x3c94346c3ce6dffaU, 0xbd09c0ae3d2e5486U, 0x3d11055dbcddae5cU,
  0x3da2d86cbd15e5c2U, 0x3d6d95733da181b1U, 0x3d3e564a3ca150d3U, 0x3d14be0ebcabe16dU,
  0xbcdde29ebc17398eU, 0x3d7232f03d77e135U, 0xbabe51c03db47bdcU, 0x3bc9971b3d22d9ddU,
  0x3bdc5e6f3d039909U, 0x3d41321b3d238939U, 0xbe0132dc3d2935f0U, 0x3dfaca5e3d134bfbU,
  0x3d1efb6e3d39f26fU, 0x3da4f27e3c829e7aU, 0xbd0454b23d863368U, 0xbdc2e6343d61f5b6U,
  0xbc5b300a3d6d32a6U, 0x3d6f7a1c3d0c29bcU, 0xbce22f36bd5363fdU, 0xbc6ece193da600b2U,
  0x3cc72b8bbb8a7ca0U, 0x3d2100a63c9eb4b4U, 0x3c0931d2bd92c537U, 0xbd56fa9cbdcf97b9U,
  0xbca7afd5bcdd6c84U, 0x3bf1eabb3d8a2c80U, 0x3d21a06ebbacb77cU, 0x3bbd711ebd43166aU,
  0x3dab350cbd2229ddU, 0xbd620cb2bc1dd753U, 0x3d5157c9bd43a2c2U, 0x3c3e4c74bd416144U,
  0xbd9fcb55bd231b6dU, 0x3b1998563d380998U, 0xbca6e9e9bc9481a9U, 0x3d18fe5f3cef6df5U,
  0x3c519dacbd2921f7U, 0xbce814363d62ba40U, 0xba937e303c924f5cU, 0xbd24d0a73a9fc1b9U,
  0xbcc3e7e53d4e9ef2U, 0xbb0ad4433d4edf7dU, 0xbd9ecc453d4c826bU, 0x3cd46e7b3c347602U,
  0xbd5db5e83cec5b80U, 0xbd9353f93d5b991fU, 0x3de8f76f3caab3c3U, 0xbd9de6eebd1a7eb2U,
  0x3d9d13613cbeee61U, 0x3cb9af0e3d812a09U, 0xbcb869db3d070f80U, 0x3c6d3c7b3a481ec1U,
  0x3bbdd0bdbbcbf188U, 0xbd08ecbabcc6c1acU, 0x3d05f4903c889bffU, 0x3d89d9d33d1d67e0U,
  0x3ae06becbd1dde68U, 0x3c5c24e63b47db4cU, 0xbaf484c13cf2f819U, 0x3d3d205cbd468217U,
  0x3d7addbdbd887151U, 0x3de79c0bbc7be752U, 0xbd3ad5953ced2865U, 0xbd1cb4f03d40f3eaU,
  0x3e0281d0bcaa9055U, 0x3ce8a8b23c967538U, 0x3e0335febd43f4f2U, 0x3cf221f73cfccf5dU,
  0x3cf44dfcbcdcf322U, 0xbbd231013cf7f87fU, 0xbb74094ebcc44877U, 0xbb4db40f3d2bb028U,
  0x3b671b3d3daa3ea0U, 0x3d95fbaf3b1b2478U, 0x3d453fc33c34768eU, 0xbd0fd6053ca1ce6eU,
  0x3da808033c66689bU, 0x3d45b9f43cd0e35fU, 0x3c4985e93bef6013U, 0x3da051a13caef867U,
  0x3c8a0816bd02562dU, 0x3c8e2068bc6dc7cbU, 0xbd795e1dbd874becU, 0x3d1f09aabd4525a6U,
  0xbd05e1333ce083f2U, 0x3d39e8c5bb83b5b8U, 0x3ce835273d806bd2U, 0x3d729bbf3c1029ccU,
  0xbce637debd297a66U, 0x3d541965bc809e40U, 0xbd1a15353d5abb98U, 0x3c340163bc4f6e63U,
  0x3d8b4c8dbcb8602eU, 0x3c896e70bcc17fa2U, 0x3ddeb03ebb88c015U, 0xbb4a3845bce54120U,
  0x3c9a00f83ba356d8U, 0xbd240be33d45f4e2U, 0x3cdc483a3d133962U, 0xbcc132fc3ad321e7U,
  0x3cb92bf5bd915818U, 0xbcd93cec3d8f9954U, 0xbd2c0074bd364d2aU, 0xbc08875ebd7cd559U,
  0xbcca35473cb9466cU, 0x3d1f798b3d639e58U, 0xbd90084b3d9f196aU, 0x3c1191543cd0bcdfU,
  0xbd9a1ad13c7c2fb6U, 0x3de527b1bd7e4dd5U, 0x3dcbcf683b2b3511U, 0xbd3a58b6bd3433c9U,
  0xbdb21a043d36796fU, 0x3d596d003b554d9dU, 0xbe17c0343c720955U, 0xbc2addf23deb54f0U,
  0xbc9d421a3df25a5fU, 0xbd06ee47bbda9caaU, 0xbd261768bd434006U, 0xbd273f62bd5fbf1aU,
  0x3d81e5ac3ba323bcU, 0x3d8565c9bc5f02b9U, 0x3dcf2958bcea0464U, 0xbc47c0ffbd26c6e2U,
  0xba93ab5cbda9bdd2U, 0xbdd608023d446ee7U, 0xbd23f4a6bd683ef9U, 0xb9e92fab3ce8cdafU,
  0x3dd0ade0bd8be907U, 0x3c84319abc0aeac4U, 0x3cdc14bcbcdc0277U, 0x3d0fd9b1bce181ebU,
  0x3c391642bc894b6fU, 0x3d49590dbd2dea55U, 0x3d20f0593d753326U, 0x3dc2930cbc787a41U,
  0xbc465f5c3d15f001U, 0x3cb613ca3c50d998U, 0xbda4633cbc2d6754U, 0x3dc0aa903c855258U,
  0x3d874f0f3da7f382U, 0xbcd404e5bce363bfU, 0xbbd797843d86b6f9U, 0xbd8799fa3cba720dU,
  0x3dc0e6693b376d48U, 0xbce03ef5bc9727dbU, 0xbcb5e2fa3d827d6bU, 0x3da2e6eabc9da55bU,
  0x3c56a977bd99c97fU, 0x3b70a9883d60a1c6U, 0x3cb1e373bdce49a2U, 0x3d145fdfbc74bb69U,
  0xbda959e8bdb6e131U, 0xbd6354bb3d9d1dedU, 0xbcd41673bc3e5cd9U, 0xbd959543bbc37d1aU,
  0x3d958fa4bdc8fb2bU, 0x3c5c26413dbe7708U, 0x3d2abd3abd275d20U, 0xbbd162543c516eaaU,
  0xbd866709bcf10ddfU, 0xbd74a4a43d93c02cU, 0x3dfb5b0f3a345f82U, 0x3be509d7bda4c1a6U,
  0x3d647d643d1e7d84U, 0xbd8f74c3bc2e438fU, 0x3da74d22bdb7b4e8U, 0xbd4c6c46bd1b242eU,
  0x3d625aed3cb5a4f5U, 0x3bfd47b13d755cf4U, 0xbc2823e23b83c11eU, 0xbd03624dbcbfbefbU,
  0xbc0522a13bc0a578U, 0x3b8f90183a044d00U, 0xbb807cfabd6e71b2U, 0xbd5126af3d2c5431U,
  0x3de2f5193d2d575aU, 0x3b8d78463d5da283U, 0x3e0ddcc03d941dccU, 0xbcb9b8e6bd093a37U,
  0x3d3eaf08bd4ae31bU, 0x3c6e9177bb56a8c0U, 0xbd6332d83d06fbc1U, 0x3d339e56bc6be171U,
  0x3c144ca2bd1c5ffbU, 0x3ccb5f123d42cae3U, 0x39a9629f3d899d42U, 0xbd41db5339868b20U,
  0x3c3278bcbcbddb3cU, 0xbc804a433ccc7cb2U, 0xbd4e94a8bcb8d40dU, 0xbcb78d00bc21b01eU,
  0xbd67107cbcf6d74fU, 0x3d26741fbcddfca3U, 0xbdb5d1c43c10a8a3U, 0xbd38c2ebbb40b2f4U,
  0xbc16558a3cdd941aU, 0x3cb44f713d298a86U, 0xbc34325c3cb6bf59U, 0x3bc574f63d4f30bdU,
  0x3cc64fdb3c32acf9U, 0x3da829ea3d802e7bU, 0x3d62b1e63d2e3ebaU, 0xbc7aa057bcccc13cU,
  0xbc8dc1b43d83dbcaU, 0xbd6ff88c3c91c747U, 0x3cd4fb833c486fdfU, 0x3c9acdecbd2c0850U,
  0xbba46d2bb8f1ce58U, 0x3d9df48d3c21ee4bU, 0xbdd3ccd13da7c67fU, 0xbcfbc67f3d42340bU,
  0xbc6b838fbd0ca052U, 0xbd0b4fd73d9530b8U, 0xbd0e3dfabd09c57dU, 0x3d03d5803d33c724U,
  0xbd372718bc9c92bbU, 0x3da42b473c17f93cU, 0xbd5fbc303da30e62U, 0xbb3b0725bce68d05U,
  0xbc8607283c3fe256U, 0xbd3a590d3cae7dafU, 0x3db6508d3dc02aceU, 0xbd752ed33d6a8e48U,
  0xbc1d4f373d4f9864U, 0x3d1d04713c4ef064U, 0xbcf380cf3d871aa3U, 0x3d8e4e353d2fa7b9U,
  0x3d7d924fbc0210adU, 0x3d0de5aebc903b6fU, 0xbd4af82fbc13acceU, 0xbca8ecd6bdb97127U,
  0x3ce085073c165622U, 0xbd05ba2cbd066cfcU, 0x3d8b53d0bd1b7664U, 0x3d3b074b3db7438cU,
  0x3dbef0c4bd6da9b8U, 0xbd8e898f3d9a06f5U, 0x3d94b01dbd248515U, 0x3d8751debd0578d3U,
  0x3dbb207a3c2a0e11U, 0x3b941e9abcca7da4U, 0x3d147c37bcc21669U, 0x3d5f3665bd4564ecU,
  0xbc83d2fb3d0082caU, 0x3d8efe7bbcad349aU, 0x3d2560e33dc50369U, 0x3d62a45b3dca7b34U,
  0xbd31fa8b3d83c5c8U, 0x3ccedfddbad4011eU, 0x3c9db6a8bd03ec53U, 0xbca5ecc7bce9b268U,
  0x3da38429bc427560U, 0xbcc4b0963da9e6c6U, 0xbd0c719c3d2f497aU, 0xbd9ac7003ce8448eU,
  0x3be43cc43d0f83eeU, 0x3d99c16f3dac04a6U, 0x3dec22efbc642e72U, 0xbcb6e5aabd434a07U,
  0xbd6b17f9bcf086b0U, 0x3c9a842a3cf0eda0U, 0x3d9796c6bbce7fc9U, 0xbab51aa93d11cd03U,
  0x3d5276ed3ca81b91U, 0x3d4595b83d7e1cbfU, 0x3b89345e3cf459e8U, 0x3a1312673d95fcb5U,
  0xbd846105bd8dcec4U, 0x3d4e0146bd2a1b3bU, 0x3dd4a6b33d0f8df1U, 0x3d62d00cbca7a86fU,
  0xbd528b2f3d9a1e5eU, 0x3d41de88bd03469dU, 0xbcbd36113d864924U, 0xbbb0154cbd3f9294U,
  0xbd5f1dbc3d81cdb4U, 0x3ced2eca3c60cfc0U, 0xba8abd763d2fea36U, 0x3ccd888bbd303c6bU,
  0x3d92bc04bce4e2ceU, 0x3d69b82a3d8da12aU, 0x3d8706cdbd0153a6U, 0xbd76e7eabd1925f6U,
  0x3d8da647bbe2fffdU, 0x3cbef705bcb81e11U, 0xbb86fe6ebd56bbeaU, 0xba9f06833c4ec17aU,
  0x3d8004ed3cfd904dU, 0x3d5769b4bd7eeb99U, 0x3ca43de03d81697bU, 0xbca899123bc3a73dU,
  0x3d6f652d3d8f352dU, 0xbcfdf17c3d972787U, 0x3d0e1347bce0ea5bU, 0x3da9de843d7d0844U,
  0xbcaa7af0bc5e4f88U, 0x3bfea2ef3d4e0befU, 0xbaa8844f3d622e73U, 0x3d067d883cea7395U,
  0xbd148b3c3cb6a9fbU, 0x3dd21962bd4c014eU, 0x3d9d195c3cbd7650U, 0xbdb79081bd71f6bfU,
  0xbddb66d9bd616047U, 0x3c059e68bd27d227U, 0xbdac7cdb3d883f76U, 0xbc26fc7c3d9f3b4dU,
  0x3bff9084bd3095e0U, 0xbcf068783d97d509U, 0xbc4d407fbd8a2c10U, 0xbce292f43c936293U,
  0x3d678c9f3cef848dU, 0x3cbed497bd4f1b33U, 0x3c756f3c3d561151U, 0x3d84a77f3cd62978U,
  0x3d27a38c3dafa43cU, 0x3d064a593d53dda3U, 0x3db1f5553d418482U, 0xbdaab3babcf29c85U,
  0x3c8561bc3d1eb436U, 0xbc042aca3d17013dU, 0x3e26d3763d213985U, 0xbcabd4bf3d764e18U,
  0x3da75dd63d0091b5U, 0x3d050b87bd62c651U, 0xbd2e09bc3d189cacU, 0xbd51e62a3c906aa9U,
  0xbbc7b2fc3d81fac1U, 0x3d19fcae3d6f3ae7U, 0x3b919678bc23efc5U, 0x3d19f9093c922615U,
  0x3c8eef61bcbe3d2bU, 0x3cc076fbbd548f88U, 0x3c8f57ef3db737d2U, 0x3cd91da83d3797ddU,
  0xbdb5eeabbcff7c8eU, 0x3d9bbc2f3d622f65U, 0xbe86fbcc3bfa1478U, 0x3d3ea3c3bd84b5cbU,
  0x3cb0d359bd4c6e32U, 0x3bc28e9b3ca9da8dU, 0x3d145cc13ca926c3U, 0xbd32cecebac4b4b0U,
  0x3c31ff993d1f3d01U, 0x3d47d9ad3ce312ccU, 0x3dd828423d45e9f5U, 0x3ab264bdbd83a9b7U,
  0x3cf1638f3c639935U, 0xbd5c17bb3d958759U, 0xbc0f9ab23d14148cU, 0xbce7bf90bd02f916U,
  0x3dbabc8a3c921c4bU, 0x3c8841963d9356d3U, 0x3c2913b1bd78e1e7U, 0x3d228747bc5373c1U,
  0x3c6ca3253d32f715U, 0xbb6165f43c7babd1U, 0x3d1034563d2dd4caU, 0xbc95fda23a0b6ab3U,
  0xbbf4792abd8beff3U, 0x3cfa9decbcdf0990U, 0x3c4653083d080f0dU, 0x3da6af733df82df5U,
  0xbe0d03873da9ffefU, 0x3bf9f1babd311857U, 0xbcec06f3bc6b242fU, 0xbd66dc9fbd98d258U,
  0xbd169e6f3d1fe8e0U, 0xbd2978983dbce055U, 0x3db7fabe3d9bf63aU, 0x3cff51363d94fa95U,
  0x3d048e5fbd45790dU, 0x3c95d910bcd09a3aU, 0xbd48d0f53d8c2ed1U, 0xbd170d1ebcf5daf8U,
  0x3dc129073d54d410U, 0xbd8d98103bb03ce2U, 0x3e2fb04f3d475946U, 0xbda4fc17bd545524U,
  0x3df6a89fbd8a4c47U, 0x3cc1e0c93d20791dU, 0xbd4a1cc13d2414c1U, 0xbd33452a3d8dce0bU,
  0x3d6ecccdbc23f82dU, 0xbca282d73d682d47U, 0x3e140cb1bc30453fU, 0x3ca7a532bcbcf61eU,
  0x3d17e6a63d196eecU, 0xbcccbec8bcf63143U, 0xbbc0727f3d8f7f3eU, 0x3dca09a53cacb8b0U,
  0xbd3334783c995e02U, 0x3dd13be63b25f4deU, 0xbbc1c3d1bcac64fcU, 0x3d9ef17bbe031b01U,
  0x3db11c03bc6fa8b7U, 0x3d128ac93daca0abU, 0xbd759d27bc825dd3U, 0xbd80b4933d9ade46U,
  0xbd41dabfbcdf3f51U, 0x3db2e0863bc91024U, 0x3e02a437bd3ce3afU, 0x3d89efbe3cdbcafdU,
  0xbe17f5bbbd0660d6U, 0xbd28f2f9bcfbb5a8U, 0xbc7f7b43bd5ba934U, 0x3d17230dbd9b3577U,
  0x3d61ceeabc2a8491U, 0x3d664a27bbe5148cU, 0xbd4e635e3d43cbb5U, 0xbcbd29b1ba61b63aU,
  0x3ca0f06abc9f8949U, 0xbd1582863b46e925U, 0x3a728eb83c652d93U, 0x3c5d206e3d24b63dU,
  0x3d8705523dc7f02dU, 0x3d80d435bd81b045U, 0xbcc4416e3d3c4389U, 0x3ce4023bbc51c55cU,
  0x3d47425a3d753632U, 0xbc0586d53d80889eU, 0xbd839ec1bd23c9deU, 0x3d7aa44f3d439a7fU,
  0xbc9eefe13ccf3a9aU, 0x3d72adb0bd227f9cU, 0x3b945fab3d50cc2cU, 0x3da0bffabcdb4fafU,
  0x3d6e5234bc595b9fU, 0xbb58db00ba959b0fU, 0x3c53ee4dbb80822dU, 0xbd2a2bed3c151d01U,
  0xbc024b38bc9de2abU, 0x3d83a860bd4bcad2U, 0xbb71fe2fbce64c35U, 0x3cf8d2d6bc02d8f7U,
  0xbd9dcc483d1797b4U, 0x3d3d4e4e3d980afdU, 0xbd1a38da3cd4e020U, 0xbce215053dce4cd6U,
  0x3d968cecbd2171e6U, 0xbd0ddf2bba1ac2f3U, 0x3dadcf513d6079d3U, 0x3caf168f3cc69973U,
  0x3d85d1813cfb6583U, 0xba94025bbd0f2279U, 0x3d9e6bfd3df57e90U, 0xbd0ab00d3d0b65ecU,
  0xbd4f6a463d4112dbU, 0x3d9bea493d3a76ceU, 0xbcfce5373d70d28eU, 0x3dc3c85fbceb08e3U,
  0xbd6173b7bbdee734U, 0xbb0ddf42bd3d4aacU, 0xbb5995c43cbead7cU, 0x3d1aa4703db94377U,
  0xbd53ce0bbd1569ffU, 0xbd2692443c8d5536U, 0x3db3fb333ce775ceU, 0xbc922babbd6795d0U,
  0x3cc1d4463c517dfbU, 0xbbf7bd293cc90c92U, 0x3c14e3133d0d077bU, 0x3d1faa84bc15f2ecU,
  0xbd574fcf3c88f33dU, 0xbcacdb0b3deaa48aU, 0x3b0ffd6d3ca9e27bU, 0xbc9f7e713c6d4cf1U,
  0x3d5e3b95bc8b4a03U, 0xbc849618ba7d069bU, 0xbd1ff0c93ceca1b0U, 0x3cb59a5cbd3b4723U,
  0xbc8267863d9e8097U, 0xbcd72249bd30e562U, 0x3c43638cbcebb139U, 0x3d22dc743cb2957aU,
  0x3c74765f3d90c05aU, 0xbccff96a3b95b981U, 0x3d5192ba3d20e635U, 0x3cff670d3c8fafadU,
  0xbc6f05e23d43d7f2U, 0x3c8085a43cd2af69U, 0x3db6c6cd3daa2516U, 0x3d6a35133aebaf9aU,
  0x3d866e25bc0362ebU, 0x3d9a0eb93d60db50U, 0x3d3facb6bda421b1U, 0x3c8881a4bc4f1d31U,
  0x3d4f6dfe3c0c2808U, 0x3d8380dd3c8bc596U, 0x3d0c7a83bd198c73U, 0x3ce36b8f3ceb0b0dU,
  0x3d985516bd657277U, 0x3c990ac7bc2dfeb1U, 0xbc1e31d0bb0d6ca0U, 0x3da9d6c23d1751efU,
  0x3d8d233bbcc770bcU, 0x3d81e5b23b7f51ebU, 0x3dc287983d135685U, 0x3cdf0b5abce00ce2U,
  0xbd8e37ac3c18cc78U, 0xbcdda1b5bbfab8fbU, 0xbb9a366b3c98ef2dU, 0x3db2bc103d818459U,
  0x3cf0fec73caf9cc9U, 0xbcf3d4ef3bfd1cd7U, 0xbc2d312d3da7915fU, 0xbb81e8be3d055e26U,
  0x3c4dfa9d3d042389U, 0x3d22d2a23d179e4fU, 0x3d909bf03d9fcd60U, 0xbc9db1ec3d106ed2U,
  0xbd5dec393b9b24faU, 0x3cfb2c5f3b7da83aU, 0x3d268b87ba3f8739U, 0x3d846943bcae8ebaU,
  0x3d4c0c41bd46b53aU, 0xbc0614d73d6340b7U, 0x3d0e0c3a3bbd3784U, 0x3b98cb753dad44c2U,
  0x3d7dfc3f3b48555bU, 0x3c8235f53d84a900U, 0x3d5d25e4bc320622U, 0x3daae014bcca2103U,
  0xbb4a7d5e3a9ab458U, 0x3d3354533d6d69d3U, 0xbcdf1eeb3d4fae90U, 0xbcd685bdbd027311U,
  0x3d9c95fabc82b87dU, 0x3da16b4dbcc9d79bU, 0xbcb461bfbb906d82U, 0xbcd1f0003db3e765U,
  0x3dbabb533d16ecdfU, 0x3da699c2bbd02dd7U, 0xbd3dfb49bb1db985U, 0x3c96f90cbc88bea8U,
  0x3d9546443cb719bbU, 0x3d1d85e53d8da8d9U, 0x3d92bb103d6555cbU, 0xbbb9494fbd362cd1U,
  0x3c8860debab57d90U, 0x3a07acbfbb006a28U, 0xbd0a6f053dbc8366U, 0xbc9c820d3d2c62e8U,
  0x3c41035e3ce17544U, 0x3be757323c9b6430U, 0x3dd1aaa2bc1b17c3U, 0x3d39b26c3d5eee2dU,
  0x3d38b460bd316159U, 0x3d0e7d7b3c9bd4a7U, 0x3bea66adbd1acccdU, 0x3d855b6ebcad7210U,
  0x3d1762d53d3cc24bU, 0xbcda10873ce78bb1U, 0xbc79dd173d870b4eU, 0x3d7b7362bdc85e85U,
  0x3b9affc93cdc6a42U, 0x3da81e143d78f444U, 0x3c9a9063bccdb8cfU, 0xbc2e9aef3d6a6814U,
  0xbc97024f3c0ee035U, 0x3d4fcf6d3d40b408U, 0x3dc58f38bb14ee41U, 0xbcad86a33c7636c9U,
  0x3cdb8d4bbd1ad462U, 0x3aac6ddf3d2d4601U, 0xbc8c1552bc8bce87U, 0x3d972cd4bd67816bU,
  0xbb5f0bbe3c5945b9U, 0x3da875d8bcadf1d6U, 0xbd7e575f3d817b62U, 0xbca0dd8cbc9e08caU,
  0x3d40b6dfba6292deU, 0x3b6d98e63c9a67f2U, 0xbd055595bc2521f5U, 0xbd06313d3c5ecf49U,
  0x3d3de7153d56f267U, 0x3d22e24d3d525810U, 0x3d68ef93bd1f1399U, 0x3c75f45a3ce8efe6U,
  0xbd82f3aab9274d14U, 0x3d388a59bc9a014dU, 0x3d8ec36d3d844ca4U, 0x3baf2ab6bd11d2a5U,
  0x3d438b203a9eae98U, 0xbcd1d6763c9e14a9U, 0xba9dad8d3d93899cU, 0x3d183cc13de3e896U,
  0xbb2700d03c9269d4U, 0x3d60adda3d02148dU, 0x3db88ad93d3b4279U, 0xbd58a88f3d367f82U,
  0x3d06e5c33d12b365U, 0x3db29346bc4d63c1U, 0xbc8f86fb3d56403cU, 0x3d01c0803d899ab1U,
  0x3c3550f53d39c61aU, 0x3c82da2f3b95b799U, 0xbc982a91bc8c8824U, 0x3c8924c8bd6eb6b0U,
  0xbd1c272dbb37ebe5U, 0xb9a96c953d41bb09U, 0x3da4a1513cf84ed7U, 0xbd5a061c3e07a3acU,
  0x3d13aa743bbcd05aU, 0x3c6b0575bd497dc7U, 0xbccc59543d3fa006U, 0xbba72dc23c122adbU,
  0xbd9aed283cfca3e2U, 0x3bb1e0253d464994U, 0xbceef552bc296f05U, 0xb98656af3c805c39U,
  0x3bcf61483d6e9549U, 0x3ca6f5fb3cd13ac3U, 0x3c60093e3ca744eaU, 0xbc8fc3d8bb623e90U,
  0x3d82bdda3ac66fd5U, 0xbcf0a8c63cf6c357U, 0xbcc2adcdbbd04394U, 0xbd17bbb63dd60c59U,
  0x3d6c8fe3bc61ac22U, 0x3d610a963d44e9aeU, 0xbcd816913d017183U, 0x3cfa7ae4bcad2682U,
  0x3dd7fbebbc85c827U, 0x3d3ea52a3d89404fU, 0x3db82aa33d5d1a3eU, 0x3c8e1ae3bc9b5ec9U,
  0xbd0d7f8c3cbcc310U, 0x3d9640eb3d0bce57U, 0x3d27ba53bd58d676U, 0x3d9f6f873b35ca90U,
  0x3b14b6d23d829fe5U, 0x3d889d6abb9a82f5U, 0xbc71f4053c9d4094U, 0xbd13aeba3d60da21U,
  0xbb7b3e833d1623c6U, 0x3d56ea1e3bd4053bU, 0xbd657050bd817dd6U, 0xbba864f1bd7934f5U,
  0xbd6bfe793d2f64c0U, 0x3cb7991d3cbc723dU, 0x3dff373fbcb57949U, 0xbd7eac5dbb821966U,
  0xbd2337e3bbf0014aU, 0x3c45efa9bd0361b3U, 0x3cbd7f97bd3cfae4U, 0x3cd3bb483d726575U,
  0xbccbc4f13d5034f5U, 0x3cd2c7833b1318a9U, 0x3d8a963e3d17ab99U, 0xbd343417bd28f5ebU,
  0x3cf6550bbda26fa9U, 0x3d3c9f29bd3d8174U, 0xbcfffdc73d410781U, 0xbb16f86e3d6b62b5U,
  0x3d94fda33d997289U, 0x3c19fe31bb85714cU, 0xbd2e400fbce201e2U, 0xbc8fce14bd5d7333U,
  0xbcef8be73cfe5d4eU, 0x3aedb5493bcdb426U, 0x3c2d83823d88c2e9U, 0x3d3ba3023d7949ebU,
  0x3c0a96dd3cfb63a1U, 0xbbfcce113ce6dab9U, 0xbd93b3ee3da5fad0U, 0xbc0a151cbd307847U,
  0x3c884c473de5b54dU, 0x3d478debbc9255e5U, 0x3d8353e43d5b8a51U, 0x3c20eb653b229c2aU,
  0xbd5f3a4c3d1a6844U, 0x3d110c2c3d363b14U, 0xbd77e44c3bddaa5fU, 0x3d959e9b3d8509bfU,
  0xbc5d89553c288338U, 0x3db27b9fbcc16bf8U, 0xbcea93173d064a68U, 0xbc5d8b4abdb5cf69U,
  0xbd19a223bcbb3766U, 0x3d30fd3e3d504d66U, 0x3b29d3053b519d55U, 0xbd278aa83df5c23dU,
  0x3dbaba67bd606ed6U, 0x3d58f8643cc593f6U, 0x3db28bd23c4821feU, 0xbcad569f3c2cdc5fU,
  0x3cc572ec3d10c0fbU, 0x3d67f577bad9d605U, 0xbcb99dd73d1700efU, 0x3d444d7a3d9b705cU,
  0x3dae434c3cf95671U, 0xbc9e66803d691505U, 0x3cefdd133ccdd8a7U, 0x3c1621383df9e979U,
  0x3d3b1d833d87c912U, 0x3d8d06d53d9e7a4bU, 0x3d8b02023d811ebaU, 0x3cac6f353d6972e8U,
  0x3cbebd4abd2a1645U, 0x3d65785b3d760bedU, 0x3c568806bda410f1U, 0x3d8ceea1bcfba3fbU,
  0xbd99d03d3cc80925U, 0x3cd44bacbd071d7eU, 0x3d1b6402bc97ee2eU, 0xbcee6c84bc9c6924U,
  0x3b79c4873ce7690eU, 0x3c5a9c803ceecfa6U, 0x3d2bebd0bd924913U, 0x3d6b5feb3d84a8c4U,
  0x3d6e9e583ce9ae82U, 0x3d3a18c23d47893dU, 0x3c86ac9bbb648274U, 0x3c8a05c63d018b3fU,
  0x3c8693473d7991f4U, 0x3ba1e988bd1d4850U, 0x3d3f7fcbbbfb85c9U, 0xbd4b3efbbd31cf69U,
  0x3d1761eebd2bcfdcU, 0xbd23e3e63d9ac117U, 0x3d7d54df3cd09f91U, 0x3ca228413b2051b0U,
  0x3d7f986fbd39a9e1U, 0xbd7d440f3d837452U, 0x3cbfbbccbc427836U, 0x3c9ccb6bbbe20cfbU,
  0xbcf63b4abd00110eU, 0xbbc7eab23d0f97b0U, 0x3d9f65c23c8bb064U, 0xbd1699f5bb347e2eU,
  0xbd34575bbd000882U, 0x3d2dfc41bccf6bebU, 0xbb5ca4c3bc93c77cU, 0x3b84e9173c80bfc7U,
  0x3d847c5ebccaa77fU, 0x3d90c7433d88e287U, 0x3d98db4cbd250490U, 0xbd02d8c13d3bd0f5U,
  0xbcff499f3cd7245cU, 0x3c88f467bcb23138U, 0xbd7869073c8490c3U, 0x3d48aee9be00a45aU,
  0xb9a6e2fb3d9a549aU, 0x3d089ec93d84a119U, 0x3be7d1e7bbf0b6e8U, 0x3d3610173d8c5237U,
  0x3da9b9173bdcaa71U, 0xbd305f823d99fac7U, 0xbd1e8ccf3d18a529U, 0xbc89b0253d9bc84eU,
  0xbcacca8ebcdec5eaU, 0x3d8a75e03bff7d0fU, 0xbcddd2b73d729700U, 0xbd3d76dd3d85529fU,
  0xbac6389bbd5662d0U, 0xbd07a5483d81538eU, 0xbd0408533d10c8ffU, 0xbd3ffa113d20da0fU,
  0x3d9c0836bccf62d3U, 0xbd07631e3d97ed78U, 0x3b8a526a3da63ba1U, 0x3d5624253d9a752aU,
  0x3d67bdae3d02f385U, 0x3d8dafe13c39e315U, 0xbcf2a10abd37f8d6U, 0x3dcaedbb3c6839a9U,
  0xbd44f4013d86b73cU, 0xbc724cae3d8c1cb7U, 0x3c3c42773d915de8U, 0xbd029061bcc3ad1eU,
  0xbc56ebe03ce59e20U, 0x3cf45ad53d8afd0fU, 0x3cc8359b3cf6de38U, 0x3c4ad681bc4f4df3U,
  0x3b797b6abce0b28aU, 0x3bfa2f883d23e397U, 0x3ce0e0be3d3556bbU, 0xbc67d756bd33dd68U,
  0x3d1711923da33b6dU, 0x3d6f57853a685b59U, 0x3cac913dbbad9592U, 0xbc8be067bd1b9784U,
  0xbca1aa57bd38555fU, 0x3dbc25293d858d3eU, 0xba4c7c343bc180bfU, 0xbd2eb7df3d03258dU,
  0x3ca71ea93cf83300U, 0x3d5a5d053d30a300U, 0xbc9c0e46bceb75c0U, 0x3d9692f23bd49213U,
  0xbd1c8d093d01f31eU, 0xbc146d7c3d2eb296U, 0x3ab5b27cbc22d4e9U, 0x3da08dac3d27041dU,
  0xbd775e123d33e7bcU, 0x3d0b62a3bcccba5aU, 0xbce3f258bc7ca6d1U, 0x3d8619e73d57a1faU,
  0x3d0398e33cf784caU, 0xbd06a225bc1e69c2U, 0xbdb74e0c3d7c4084U, 0xbd17ff783dae5976U,
  0x3d0a54d03d38ef89U, 0x3d7f6b373c6e3d54U, 0x3cdd5e1dbd241f6bU, 0x3d4c05c93d1d1643U,
  0x3ba8bc653c3cafb8U, 0x3d68c6333d4eaf77U, 0x3cda7d8d3c4a5933U, 0x3ca5bcbcbd271b9aU,
  0x3d24c8bc3cd6b0e3U, 0x3d2230dabd091e64U, 0x3da7acc33d331bb5U, 0x3dba7409bcb18a96U,
  0xbd0ae43f3c1df7dcU, 0x3db06f443d2fb367U, 0xbdfc4d3f3d0bf195U, 0x3d98dfe23d0691d3U,
  0x3d690710bcf999e2U, 0xbd092c373d78bdc5U, 0x3b463e3a3d8615c6U, 0x3dba37d43d530a46U,
  0x3d35960b3d7e8b40U, 0xbc2595ec3c781893U, 0xbd47174abd060643U, 0x3d6d58d03cebf647U,
  0x3c9d3ed9bbdbd202U, 0x3cdc1174bbef4702U, 0x3d59f18a3de00fccU, 0xbda528fd3d2c9a4bU,
  0x3d0b565dbd21541aU, 0xbccb976f3d60e30bU, 0x3d96ceaf3d96f5e6U, 0x3dcfdcf93ce9fadfU,
  0xbc7711a53d842267U, 0x3d7b49883d9f7ebdU, 0xbcb32ad43ca99e56U, 0x3d447b2ebc8db133U,
  0x3c804c1c3c823b91U, 0x3d2434693c8af15fU, 0x3da88b4fbcdda0e1U, 0x3c42fef73d7859edU,
  0x379edc9d3cf3ebfeU, 0xbccdfbe83d06b95eU, 0xbd45ac31bd22ee62U, 0x3d8ec682bcf9f96fU,
  0x3c0d9064bc8e1db0U, 0xbd2484cdbd20f3edU, 0x3a43e3313d8c16f5U, 0x3db2e9d23d48797aU,
  0x3d51dff23c516ca1U, 0xbcd9a47bbce7e186U, 0xbc11708abb561f5eU, 0x3bb42ac73db7b60cU,
  0x3d008b70bc3377f4U, 0xbac7239f3d324c19U, 0x3dae50d03c99d060U, 0x3cc77c9dbdb827adU,
  0x3d40a95cbd2997e1U, 0xbd53a3c5bd29582cU, 0x3b3c4350bd170b15U, 0xbd29f668bd482df4U,
  0xb82c19373d4a51dcU, 0xbd41a93d3da20489U, 0x3d3f6bc53d51a0feU, 0x3d3ecf45ba684a1eU,
  0xbd844a733c8e60f9U, 0x3bdf0ca9bc256cccU, 0x3bb2f7493d4397e7U, 0xbd120f8fbcbf25e8U,
  0xbb2357e43d33b0d6U, 0x3d62ed61bd3905cbU, 0x3c5b6076bce77cfdU, 0x3ded0d6d3c818233U,
  0xbd6f00ff3d62121eU, 0x3db1a95ebc21ae44U, 0x3d2c67e63d95f0abU, 0xbd7ff37c3d319b04U,
  0x3c0d9cabbcc3a624U, 0x3cfb5ae13d58699cU, 0x3b043351bd09ba08U, 0xbbcdf78f3d7b91ceU,
  0xbbbda3ed3bcb4c12U, 0xbc9313973d6ced7dU, 0xbd5d43a9bc0e5111U, 0x3d32b0a0bde4aa74U,
  0x3b5657c4ba85ddf7U, 0xbc0cb5143d445684U, 0x3dc08f193bdf52deU, 0x3d811dca3d249a54U,
  0x3d2efbbdbb9919dbU, 0xbb05ad273cd53470U, 0xbd54e4de3c88c6b8U, 0x3d6e77a23d0b90aaU,
  0x3c7d65a13db7158fU, 0x3cf546373db75d52U, 0x3b0a3d883d86a8b6U, 0x3cc532a43ce62dcbU,
  0xbd9aa6febd5f9c30U, 0xbd2554a03a481919U, 0xbcc0adcdbd1412b8U, 0xbbafa974bccb0be6U,
  0x3d86fd8bbc6d3a34U, 0x3ac77d903d8c5d2bU, 0xbd5d45333c8151dbU, 0x3d5e1fec3d39c85fU,
  0x3d97cf1e3d32936eU, 0x3d6489f13daba5abU, 0x3bfc39583d8ceaf8U, 0x3b48435c3d82d63fU,
  0xbc9e5c633aa3674dU, 0x3d55142c3d75b7feU, 0x3e218072bcf73de5U, 0xbb7a93453bb4c7a7U,
  0xbd9299aebced0a86U, 0x3c32f43c3c942320U, 0x3b9ff942bd954c8dU, 0xbd6d65cdbca5f22eU,
  0xbd4517e939c78f40U, 0xbd4cbbce3d6ba94cU, 0xbc90faab3ce854deU, 0x3b7eb827bb8b9ae9U,
  0x3d8c5758bd6e64bcU, 0x3d0cc511bc101650U, 0x3d17853e3d48036aU, 0x3d85da483d88d3ffU,
  0xbd5fcfd4bc27e243U, 0x3ce6caa93d78afbaU, 0xbb52f514bb181963U, 0x3d04ed543d97a688U,
  0x3c64af7d3ca6f081U, 0x3bab27fe3d034613U, 0xbd0c43bfbc7cb8afU, 0x3b0763753cfb42a6U,
  0xbcbcf149bc73c66cU, 0xbd39cd793d31701fU, 0xbd5db7d93d6cefcbU, 0x3cf2dcc33d747201U,
  0x3d4b42a63c3d5177U, 0x3cf9dce939a19482U, 0x3dbcaff73d23fe19U, 0x3d770a84baae7a80U,
  0xbd4a1b04bd0dd465U, 0xbcc64167bc7a118cU, 0xbd43be803d66fc1bU, 0xbcc8b186bd181c8cU,
  0xbb8719183d3c4888U, 0x3d1fdc973d52b91dU, 0x3caeabadbd965ac9U, 0xbd068ac1bc14da27U,
  0x3c47fc953c6cb784U, 0xbc81380f3d367958U, 0xbd68c16cbc09a0d0U, 0x3dd3051c3c51f8b4U,
  0x3d4709a63d7646c8U, 0xbd130bbfbd539bceU, 0x3bf4d19c3d8b3095U, 0xbd82c5a8bc928fbeU,
  0x3d22bda3bca16ce5U, 0x3dc546333da6b2cdU, 0xbdc1221d3d298828U, 0x3d8648f13d09d93aU,
  0x3d5c4cdabc241a18U, 0xbd00be773cf3ddfdU, 0x3ac3190e3c7094b7U, 0x3c9388de3d8879bcU,
  0xbd09e86b3d070831U, 0xbd1b811f3d0aee0cU, 0x3c850974bd2cbf5dU, 0x3cc1f5553c503e66U,
  0xbd46c4823d3e3937U, 0x3dddcf9e3c9c8021U, 0x3bc8ccaa3d3a99c1U, 0xbc9f547b3d05bdf3U,
  0x3d8c4d683c7625e4U, 0xbd3a550bbc8c1d99U, 0xbddeea3a3d9efdf8U, 0x3cdcf2163c854fb9U,
  0x3db8f7023ca0b42fU, 0x3c67102fbc4d3b5fU, 0x3c07737c3d63edfaU, 0x3cb8fa6c3cfcd680U,
  0x3d6c61adbaf73ae7U, 0xbbd6550fbce45c0cU, 0xbc33a7923d6b8f48U, 0x3d5ffa6ebc20f7f1U,
  0x3cab038dbd26b6dfU, 0xbd640e733d4c9153U, 0xbad501083c362056U, 0x3d280af33d61ea6cU,
  0x3dbb251f3d6c09f9U, 0xbd62cffb3ddc8d16U, 0x3de3b3b4bc88a5bcU, 0x3c647ceabc94f9f6U,
  0x3ce9a977bd623e1fU, 0x3d6803e5bcd6be0fU, 0xbc86c1be3d0e112aU, 0x3d10151dbd11a15cU,
  0xbcf366093caec5e4U, 0x3d450106bcb42ca7U, 0x3c82c3cf3d2cd769U, 0xbb54e5443caf87cbU,
  0x3d79106abd28e982U, 0xbd17d55f3cbd7062U, 0x3c4de8dabd92b0d0U, 0xbcc78eafbc0959bbU,
  0x3d911e59bcd9ad42U, 0xbb593c183d880b20U, 0x3e027ac13c98838dU, 0x3d89a80abd5b48aaU,
  0xbda3b1573d8b664cU, 0x3c0ae31d3be0e400U, 0x3caa9f79bd46dba7U, 0xbd3575e6bcd477c1U,
  0xbd162b0c3c4b3e76U, 0x3d0e5ac53b08e71bU, 0xbd0ddf4f3d4cabd2U, 0x3d84fae83dc179daU,
  0xbd460f0ebc2c8fdeU, 0x3c24b787bbf7254cU, 0x3d78407c3ca283c2U, 0xbd51fe693b04477dU,
  0x3bdcf3e63d809307U, 0x3d91882d3d924ccbU, 0x3e2130423d36c9d5U, 0x3bea07cfbd502533U,
  0xbdb321153ca9f549U, 0x3bd5535ebd332067U, 0x3d1b11a2bd9d1f9bU, 0xbd52135cbcd679f3U,
  0xbe100d6abdef18cbU, 0x3d415581bd569d1dU, 0x3c2a33f63cba6e3eU, 0x3d99ba1d3c54b0d9U,
  0x3de746f53c483120U, 0x3d801e943e1fe004U, 0xbda309833caf34f5U, 0x3cc6dc563e084a63U,
  0xbcc039993d9245b7U, 0x3dca6b263df5d7b1U, 0x3eacb4cbbaebff89U, 0xb93b349d3de6cdb1U,
  0xbd8e91c5bc990cebU, 0xbcc20c9ebd7a89b8U, 0x3da697e83c6e39d5U, 0x3d7178a2bdc77f5eU,
  0xbd3c52f5bd347e90U, 0x3d272009bcc125caU, 0xbd7e7371bd3d465fU, 0x3cac2b6d3d27df9bU,
  0xbc0d477cbd3471fdU, 0x3c0ef141bd822446U, 0x3d931497bd80f84bU, 0x3d507e563b9d4d57U,
  0xbdac7a503d7c8dccU, 0xbda4f8d1ba3de80cU, 0xbc3c1c7b3e051f85U, 0xbca4f17dbe0d7147U,
  0xbe044c01bd0bceb5U, 0xbcb3eaf5bcec58c7U, 0x3dc8880dbdce54e0U, 0xbd148b36bbdfb86cU,
  0x3dad14dabc9476b5U, 0xbc976310bc5bab2bU, 0x3e1da0fa3d81cba3U, 0x3d98d5fa3e049389U,
  0xbd3fee8d3d125d0bU, 0x3d1b05cebd84b035U, 0xbdace510bd4e4faaU, 0x3c9cc307bd2fca96U,
  0xbd465be8bd915333U, 0xbce21c40bbc110ecU, 0xbd34bc26bdce9bdcU, 0x3d1107b63dda685cU,
  0xbcf02dc2bc3b72ccU, 0x3d141558bd5f99d7U, 0xbd014a633c8c3e5aU, 0x3d7d97b23d17c2c6U,
  0x3c63ec523d252a8cU, 0xbcbb882bbbaf59c2U, 0xbabdfd1d3d7cab8cU, 0x3e1abb67bc520f6aU,
  0xbe0889933c3c0a11U, 0xbd4e964abbe09ac2U, 0x3d126d1a3de6abafU, 0xbd9313ddbddc2892U,
  0x3c0919023d068b05U, 0xbdab3da6bcc14788U, 0xbe21db473c2afdb8U, 0x3d4c85acbd58a444U,
  0x3daee8073dc234adU, 0x3dad8a923c57c3bcU, 0xbdc39a463d9eb500U, 0xb90c8cd4bd7c8d26U,
  0x3dd745b53de374f0U, 0xbc6f50c0bce617e3U, 0x3d15b5833d077f11U, 0x3cb725b23e53b35cU,
  0xbd6fbce43c97c748U, 0x3de1294e3d872ff6U, 0xbcaff5143db0c0edU, 0x3d840d383c842de3U,
  0x3cd6f4f6bcb9c8c3U, 0x3ccef2a53d41356dU, 0xbe09570cbd9cc2dbU, 0x3d3ca8763df66c82U,
  0x3de60cfd3da4dfa6U, 0x3d0a7e53bd4713dbU, 0xbdaa8a783d2837d8U, 0x3d8ae1e63e242b95U,
  0xbd0dfb85bc96a57cU, 0x3b3ee1b83d17b436U, 0xbdad8a583caa1b59U, 0xbdce94943cafaeebU,
  0x3dfc29e03cb4ca1fU, 0x3d5f9c233d6dccf9U, 0xbb829f7e3ca33ebfU, 0xbb5a13163dc00e6dU,
  0xbd43e8973d63d4f7U, 0xb98d06123d4bbd0bU, 0x3d897e2b3d51db4dU, 0x3e061a0abc67a078U,
  0xbd7d2d1b3d552f15U, 0xbdf268f13d49845bU, 0x3d04aac4be46cf4aU, 0x3ab0267e3d822117U,
  0x3c0acd6fbcba6939U, 0x3d68955c3d9859e8U, 0xbca44b63bd0e9a90U, 0x3c2d49353b65dcdfU,
  0x3d3568f13d1aa91fU, 0xbc23d210bdc80e43U, 0x3d50fc203d96f66eU, 0xbd7c0cf1bd5a04f1U,
  0xbc7e83193c898775U, 0xbd3a12f7bc69c925U, 0xbcbba1653cedf3a7U, 0x3dca33ef3d0f1d40U,
  0x3d72bfa2bca4c4e9U, 0xbc1cfbb43d60b9bdU, 0x3d407b093d82a1aaU, 0x3c830b2abcf88d51U,
  0xbd772fd03d17a2abU, 0xbcd7d24e3c6784c7U, 0x3c8496e93c000664U, 0x3d52b3e43d8f2ff3U,
  0xbc3f5ccbbd05dc0aU, 0x3d1149bf3d21904aU, 0x3bef0ca63c46921bU, 0xbcf6d5903da1b8bfU,
  0xbdd00f833d7147d6U, 0xbc813d0a3d8329d6U, 0x3ce9a7c33d465783U, 0x3db1e817bd66a080U,
  0x3d971f2a3db71e6aU, 0xbdfa8accbb589e36U, 0xbc932b17bde1e07cU, 0xbdec9fe7bd19bbf8U,
  0x3c8990c43ab67d18U, 0xbd55e3503cf7bec2U, 0x3d0a1c51bb922bc9U, 0xbc52b9b73c4f14d2U,
  0x3ce22feb3d46e0b0U, 0x3d84f527bd0a2426U, 0xbd51e7f13d81b11aU, 0xbd4578903c1f63a0U,
  0x3a096451bd966399U, 0x3c856030bc23a688U, 0x3d94a0d9bdcccd73U, 0x3d8917463cfa3176U,
  0xbce4d77fbba84c1fU, 0x3d16a1133ab3268fU, 0x3d06bebfbc2c131aU, 0x3c9c9fe8bd5252c5U,
  0x3c8fb1ae3d2a7f00U, 0x3ce792b0bb55454eU, 0x3da392463bb7754eU, 0xbcf978bf3d3995ffU,
  0x3d8df11bbd099741U, 0xbc53bcc0bc809b9bU, 0x3d581198bd2c7493U, 0x3ca61e52bca590d3U,
  0x3ce1654cba1fa63bU, 0x3d3b3332bc83cbaaU, 0xbd448f92bca7fc7fU, 0x3d3a89ea3bff5af4U,
  0x3ccc03cc3d8218bcU, 0xbd0859b03d7da9b7U, 0x3cfa325c3db40e0cU, 0x3cd809f3bbd52c17U,
  0x3baccdbebc8e2af5U, 0x3d4090e7bd24247fU, 0x3d1f998b3d878fb2U, 0x3d793a75bd455291U,
  0xbc1ce7d23d882fa6U, 0x3db803a8bbe9ebf2U, 0x3d9879083cb4034eU, 0xbae3b9633da96a1fU,
  0x3d461203bcecde35U, 0x3d72ddadbd3f45deU, 0x3ac2e60b3d20afcaU, 0xbc41dfe9bcefc536U,
  0x3cbd54f43b8dac5eU, 0x3c94d4573d146176U, 0x3d2552123da7bb9aU, 0x3da1a2a3bbcde490U,
  0xbb50242abd057690U, 0x3d79af8c3d507a50U, 0x3d9121f73d6bfe73U, 0x3cb740893d115d42U,
  0x3d0e35f5bb433742U, 0x3da01904bd8c0f9fU, 0x3c90a5853d3c7283U, 0xbd1b00d8bc9ab4d5U,
  0x3da4a2eabd019a32U, 0xbb8a5d10bc4622e8U, 0xbe0b59b93d54ec2bU, 0x3c9dc7833d36a992U,
  0x3dcd335d3d25e532U, 0x3d9c6661bb7b36e5U, 0x3d537c683dabce36U, 0x3d14bcfbbc58c136U,
  0xbcb8014d3cd993cfU, 0xbc6be0183d111d16U, 0xbbad810bbc75fce5U, 0x3c99c0f53c104fd5U,
  0xbc4c34ad3cb19437U, 0xbca4681b3daacdb5U, 0x3d0827213d88b457U, 0xbd9194923d8f67daU,
  0x3d075eeb3d8c2349U, 0xbb7036303d9f2e9aU, 0x3e0758533d6065eeU, 0x3d97e7f23d648fe2U,
  0x3c8b5caa3cf2584cU, 0x3d1ef762bce3af52U, 0x3d0479de3bcc3f02U, 0x3d0bea09bd891ab6U,
  0xbcd3bc943c02f6f8U, 0x3d961dbebcdcdfddU, 0x3d0574e73d2c99a0U, 0xbc8346debd1c9ad0U,
  0xbd6f6f5ebb7d2c89U, 0x3d0cdca4bd74cd95U, 0x3d8081663c852bb3U, 0xbd5150b83a8d0d9bU,
  0xbd6f7bc43cbb5be2U, 0xbd3462e4bb28f79bU, 0xbd98ee1f3d47a79bU, 0x3cbf1d773d9b202eU,
  0x3c8b0a75bcec47d8U, 0xbbfafa75bd148550U, 0x3c80bbdabc3bd39dU, 0x3c780c7a3b21aa0aU,
  0x3d38da7abce2ca07U, 0x3d8302f43c72e7a9U, 0x3c0d66dbbcb74a99U, 0x3d050344bacee813U,
  0xbd479cf73c126c45U, 0xbcfb2a4fbc93f61cU, 0x3cb7da393dc4a4bdU, 0xbd8645aa3d466643U,
  0xba6b262c3db9ed9eU, 0x3c474a443d5a8c0bU, 0x3d4f8383bcd655f2U, 0xbac18951bd5af9e2U,
  0xbcfc7eeabd2d86ffU, 0x3cb552dcbbde339eU, 0x3d0c2bf3bcfebd05U, 0xbd99c2c0bd7535a6U,
  0xbc16a0dcbb92ca79U, 0x3da4697d3c0d254eU, 0xbd4626453db0d255U, 0x3cae7cde3d856717U,
  0x3d196a893d702d3dU, 0xbcd85dd23ce80c4eU, 0x3b4de4eabc16da36U, 0xbd112e99bd2b9e46U,
  0xbd0be9d23c8df2a5U, 0x3d16578fbcba1b82U, 0xbd0443cb3d6a99f9U, 0x3d9485913b87aa6aU,
  0xbbde63f9bbc8cee8U, 0xbc97e1d73c9d23d6U, 0x3d4ace3dbd9a9adaU, 0x3d84b632bdbf2c79U,
  0x3d44e99c3d1cd21fU, 0x3cca3fbebc4cad38U, 0x3d57b9c4bc32711dU, 0x3c02ad493e03b423U,
  0x3d7eac083d0efd50U, 0x3d5712e53d8adec3U, 0xbcf70696bd492a4bU, 0x3d68408d3cd8a7c2U,
  0xbd5f208c3dba5e9aU, 0xbc8dc5cf3c9c99b5U, 0xbd4a3175bb9e6ca2U, 0x3d90b22dbd62bb78U,
  0xbb6e614f3dbd7e3bU, 0xbd45c0533d8f41b7U, 0x3d7e88503c21c9eaU, 0xbd10b2bf3d9cf33fU,
  0x3d44fdcebc5a0dc8U, 0xbd20f0463d932037U, 0xbd14c679bd1a32ecU, 0x3d8895943b00475bU,
  0xbcd7c9cebbc30802U, 0x3d6393c53cb9567bU, 0xbd0101663d1eda31U, 0xbc86a41c3d1abe3dU,
  0x3d11aab1bcdfaa9eU, 0xbc7410b03d2b17b3U, 0x3d5588c3bd33fb5cU, 0xbc7876be3d81d8b4U,
  0xbdd82070bd3b5f76U, 0xbdaa501d3c6d08d1U, 0xbcdad058bd63a8d3U, 0xbd1bfcc2bcfc298cU,
  0x3cbc640abd60c337U, 0xbc18353c3c56e2e8U, 0x3aec2d0cbcef4a02U, 0x3d63fc363cc58380U,
  0x3ce271f53db40c5bU, 0x3d1d992f3d196fdfU, 0xbc1f38e03d9dd94dU, 0x3a8572aa3daf250fU,
  0x3ddf0382bd2d4e47U, 0x3c955fd83ccd1327U, 0x3da168e03d8d873cU, 0x39b6ba633da06006U,
  0x3cc9f586bd1a230dU, 0x3d9e24e53d606f78U, 0xbd7052d43cd25da8U, 0x3d570553bdc458f3U,
  0xbbb2dd5dbd1ebbd5U, 0x3d234e9e3d0afb16U, 0xbd5101bc3ce1f686U, 0xbd9d714fbc671573U,
  0x3d651a02bbcc3d8dU, 0x3d9d5320bcfcd6afU, 0xbc8aa5c4bd64b2a8U, 0x3d0213da3c8bd2e4U,
  0xbcb1ee18bcbe6169U, 0x3d5d9331bc930164U, 0xbd0fa0643be6ebe8U, 0xbda44a91bc5baa7aU,
  0x3d8be3d1bc86622dU, 0x3d95d631bc271348U, 0x3cac3f0d3d57badbU, 0x3d9b078f3d895437U,
  0x3d9f37cfbc9b5588U, 0xbc9a1b5f3cab27b6U, 0xbb15e91c3d86de82U, 0x3d8c71783d15eb38U,
  0x3db019b83d3c36baU, 0x3d6dff16bcc4204dU, 0xbc024192bd709174U, 0x3d9ea7513b50c681U,
  0xbcd191c0bcc45186U, 0x3d7357e93d3d792bU, 0xbb05b098bc44bca8U, 0x3d7999cfbd026e2aU,
  0xbd57d70a3d137255U, 0xbc2771f8bce9d512U, 0x3d1fa8933d89e1d6U, 0xbd251c90bc9d8384U,
  0xbd2437eebd8691bcU, 0x3c987b003cbb1732U, 0xbd8b24493dd761dcU, 0x3d1d46943d3333c7U,
  0xbd7676403ce68c8dU, 0x3d9f92383d7739b6U, 0xbd107d433d6830bdU, 0xbd8f6c283b893da0U,
  0xbc1d6e3bbd5e45b7U, 0x3b47b2623d6d14cfU, 0x3d39583c3d4a1e94U, 0xbd128016bb91092eU,
  0xbd9298e5bd8c1017U, 0x3c537dc23d340567U, 0xbd5921ecbc6754b0U, 0xbd167c09bdcdb2ebU,
  0x3d8f51ed3db10bfcU, 0xbd2928c33d6d78c9U, 0x3d82a86cbc45de2fU, 0xbb56376c3da49a24U,
  0x3e020660bd03baf5U, 0x3cbf83763d1cd196U, 0x3c5455a83d9acaf8U, 0x3d58fc32b9c4a2d6U,
  0x3d5ad4873daf614dU, 0x3da4fb18bc73d4a0U, 0x3c4a587e3dcf9c5aU, 0xbd25c0c53d8ce33cU,
  0xbb1a93323dcc4c8aU, 0x3c181df63d83e868U, 0x3c6242703c664cf3U, 0x39abe0cf3dcef941U,
  0xbd2cfdb03cea33a2U, 0xbcb7aab23d4f2dd6U, 0x3d6d17f43c59a42dU, 0x3d8384423cdefbf2U,
  0x3d4363a53d838c92U, 0x3cf5c36dba7e404bU, 0x3d171d823cc5ccd6U, 0xbce94cbf3d874dd9U,
  0xbc1e13ccbd3704b5U, 0x3d0bcc533c883c48U, 0xbd8aee15bbbabdbdU, 0xbc95c2123d12f722U,
  0xbcc3eee5bd422eedU, 0x3d0e93323c29af10U, 0x3d30991f3d199aedU, 0x3ba2d30b3dbd9f37U,
  0x3bcf60ccbd2bacc5U, 0xba781bca3c8dea42U, 0xbc8ac7613d144d10U, 0x3cf428f03d4705b1U,
  0x3cb93fee3dbc63e4U, 0xbd01bee83b014638U, 0x3de853313bc5ee62U, 0xbc8ab1bb3ba022e3U,
  0xbd046f853d8b57d0U, 0xbc18e9473d12f9d9U, 0xbd589dd6bc589bc1U, 0x3d2fc7323d8ddf41U,
  0x3d0fc96abd55410dU, 0x3c6dfa793c8e1377U, 0xbd6e97143cc692f6U, 0xbcd34edcbd6eae2bU,
  0xbc17430c3d866362U, 0x3d0b13a53cf77e16U, 0xbd79d4d93d359ad9U, 0x3cb27ecfbbfbfd10U,
  0x3d9bce8e3d82511bU, 0x3daa262b3d89c8efU, 0x3d9ff1d0bd3f239dU, 0xbd88c0773d0f9901U,
  0x3d50f4c33d997c80U, 0x3d9b17e5bae3804dU, 0x3d5c0dbe3da856d8U, 0xbc383b0738c4f997U,
  0x3d8104763c15a2b1U, 0xbc95d10c3d5a119aU, 0x3cc3f58a3c8febc1U, 0x3bf6d1e9bce13091U,
  0xbd1cdd5cbc2560cdU, 0x3d7f3abc3d853abfU, 0x3dab437dbce3e431U, 0xbd68c15cbc707dcdU,
  0x3d38b29ebc8be2b0U, 0xbd0634743d9b201dU, 0xbca1cb73bc4a18bfU, 0x3db6008c3d7c401fU,
  0x3db28ab2bb004412U, 0x3d3225723da6759cU, 0x3de2dfa6bc0efaa6U, 0x3d3d6aa63cfe7cf9U,
  0x3c60a635bcaa74ecU, 0x3d848f1c3d5d3e5aU, 0x3b800d893c81ec71U, 0x3d0d4a873d8e4775U,
  0x3c8cec0b3c7d350bU, 0xbd41a9a73b5b9007U, 0xbd01e3eebd10e1edU, 0x3cbd44d6bd00756cU,
  0x3c85f5513d80a445U, 0xbd112e09bd07e203U, 0x3d8a21e13cc25f57U, 0xbc74a131b8f42f38U,
  0x3d0722543d24623fU, 0x3d730be13cda2bc1U, 0x3c8ac689bcc0db87U, 0x3d79f7453a501d85U,
  0xbd6411933d5f28b1U, 0xbcecff2b3d8095b9U, 0x3d108d82bd841049U, 0xbcb2d1233cd897d4U,
  0x3ca786ecbcbec742U, 0xbcfa244f3cf3b8c0U, 0x3cc61967bd42d808U, 0x3cb006993d9c1a52U,
  0x3daba0bd3c3f2c1fU, 0xbd05f7873db3351eU, 0xbcb7b617bd1d67f5U, 0xbcf8adde3d87b42cU,
  0x3c9b04c63d5a9717U, 0x3db789383d826790U, 0x3e0949e03d8f06fbU, 0x3d8019d13c32576bU,
  0x3cb439733cc2e267U, 0x3c98eca1bc272c02U, 0xbd5a60c23d7f853bU, 0x3db77cfd3d1cd15fU,
  0xbd30d0aabd4d2503U, 0x3d40aea4bcb3146fU, 0x3d80d33fbdaff225U, 0x3d2a4a7c3d885969U,
  0x3d691091bcbda8dbU, 0x3cb1386cbb798cefU, 0x3d06082abc9a5dadU, 0x3d4ea4483cd8eeeaU,
  0xbd77f4f3bcccc1c5U, 0x3d0cf3bb3d577963U, 0xbda029953da4cc06U, 0xbc9bdc5ebcfac2c8U,
  0xbd2a745cbd038eadU, 0x3d30fea5bbe0690dU, 0x3cf2ede4bd974feeU, 0x3d601882bd5a30bcU,
  0xbd98a6babdd5894dU, 0x3bf44b4a3ce86fe9U, 0xbd97cb443cb2090aU, 0x3da8269dbd413238U,
  0x3cb59e4d3c19e700U, 0x3d52c0553cd2cb98U, 0xb9ff44b7bdaa85eaU, 0xbd1699b73da4af7aU,
  0x3de8d68ebce30610U, 0x3d7865a43da51204U, 0x3db3bb84bd4d144fU, 0x3c84e8463c839b91U,
  0x3d43f2413cc7fa41U, 0xbd1d27643c5eb76cU, 0xbb9a1829bdafd6eaU, 0x3db577c13c36b022U,
  0xbd19369d3d8a7dd7U, 0xbd58bc553caf951aU, 0xbe25525fbd4cc0bfU, 0x3d7b70c8bd5773beU,
  0xbc2ebe7abd55b4bfU, 0x3d916e8abbd403e9U, 0x3beb5d893c63a6edU, 0xbaf154bebdc40cd6U,
  0x3d87266d3dd84342U, 0xbd5465fc3d03fb3cU, 0x3d77db4dbca451e5U, 0xbce3a6dfbdc57fc2U,
  0xbd48e0c6bd327187U, 0xbb800f843cf70864U, 0xbc91e9d4bd5d4407U, 0xbdc89193bd4aec08U,
  0x3dc1fa2fbcf1b3ffU, 0xbd40057b3cfd4c29U, 0x3c867ebe3bb2d1eaU, 0x3dd35e6c3da4c9d9U,
  0x3bf412f63da88d50U, 0xbcbed95dbcd0190bU, 0xbd394e3a3db4582eU, 0xbc92c063bd83c121U,
  0x3cc3d4653cb0c87bU, 0xbc5c4fbc3d4ce57fU, 0xbc09e28d3cdd830aU, 0xbbfd83d1bca93bb4U,
  0xbd8e90a63bfde153U, 0xbd01827bbcf0674fU, 0xbce194b73dae6545U, 0xbd0828ba3dfd0614U,
  0xbd591a56bc8dae19U, 0x3bc1d5613c197a72U, 0xbaa60f3f3b316a4bU, 0x3d504c7cbdec8e2fU,
  0x3d1e4ee2bc200dc5U, 0x3d11fab4bcdd38f1U, 0x3d9a466dbb42bdaeU, 0xbd4939a43d04c3a5U,
  0xbd3b0ead3d04d1d8U, 0x3b79d5babdcc2d5fU, 0x3c6e59993db60a38U, 0xbb1db8303c786f93U,
  0x3cb9e9c13cdb3ac5U, 0x3ce55d0d3d755f3dU, 0xbd77d4c23ce692d7U, 0xbc606755bd46f980U,
  0x3c3a1d083da7540dU, 0xbbc04685bae9c646U, 0xbcd6ee263cefc451U, 0x3d30e3023d54aafeU,
  0x3d54dac8bcb30a45U, 0xbc4230edbc140998U, 0x3daa0f153d500a83U, 0x3d0876e03d8b971cU,
  0xbcfab8e1bcee8e48U, 0x3d8e9bfd3d4d0122U, 0xbd581b183bb3ca03U, 0x3cea3b1dbb64804fU,
  0x3de931053da848d9U, 0xbd2e97cbbc71634cU, 0x3d8b8d5d3d7806ebU, 0xbd679fda3dc23b3fU,
  0xbdf71e00bd853d6bU, 0xbda4df3e3d0c24bbU, 0xbd98867bbd7f6bf4U, 0x3d21029abd04ea5dU,
  0xbc0d3bc53d306eb0U, 0x3c35834ebd28e6ddU, 0xbaea80963db0e011U, 0xbcc94addbc29d551U,
  0x3d17f6cb3d594fb4U, 0xbd26fb5f3d9256f1U, 0xbd1bdaccbd23846fU, 0x3dbeddddbd8aa064U,
  0x3d8aad1c3cb35845U, 0xbd8f15babbc71e09U, 0x3d9928f8bd875be6U, 0x3c8ffeaa3bf75cbdU,
  0x3d11007e3c7e37dfU, 0x3d3dde8a3bb5d8deU, 0xbd956161bd11ff5bU, 0x3d2e6ea2bd16bcf6U,
  0x3d735620bd24d0dfU, 0x3d0aae173d72a230U, 0xbd567a7e3d8340a1U, 0x3cfdde473d1cfca6U,
  0x3daecd8a3db1f494U, 0x3d5f20d9bce7c50eU, 0x3dd6dc1bbcf4ddc8U, 0x3c3dfe1cbd1ed610U,
  0xbc0e451f3d0a0d13U, 0xbd1e6b95bccbc8a9U, 0x3d8b4339bd1ea070U, 0xbd0f8b403c794636U,
  0xbcb3ce603c9ea7d4U, 0xbd54828e3d431a49U, 0x3d0955303d9424e0U, 0xbcc5af18bc1db247U,
  0xbd2e69703b85979dU, 0xbc1604f7bd2e5f7dU, 0x3d810c733c30d586U, 0xbc6b862bbd0b37c1U,
  0xbdd53c1f3c393989U, 0xbaf6f2f93d61d8c0U, 0xbd8501473d323460U, 0x3cb1a221bda31f93U,
  0xbcfc9ab5bd6c6d52U, 0x3d102e643c1fa449U, 0xbd80933c3d0a50adU, 0x3c4004b2bd887401U,
  0x3c47d27b3d657eccU, 0xbd35fcd2bb941727U, 0x3d5736e6bd023f57U, 0xbb83e6b23dff7053U,
  0xbd21aac43d24b81fU, 0xbcbfc613bc67a4caU, 0x3bc80c193d56d711U, 0x3c75bc8ebdaf010aU,
  0xbc23e08d3c1b6c4bU, 0xbc56560c3aec6ca6U, 0xbd6f34ffbd2225f2U, 0x3bdb46473dd322e6U,
  0x3c921e353d8ee83bU, 0x3d9b6e5fbd34f0dbU, 0xbd3822153d0e32dbU, 0xbc1ca3fb3e01288eU,
  0x3d105c473c8d95e0U, 0x3bdff1a13d321bc5U, 0x3d5b90243d4ed1f3U, 0x3c29232c3d2ee120U,
  0x3db9439fbd22a59cU, 0x3cd6b9703b95f9cbU, 0x3d24adb6bbdfe3f7U, 0x3d8822553d65e1a8U,
  0x3c975b053c2486f6U, 0x3c27241e3c7c1cd6U, 0x3d88c36a3d621a70U, 0xbd045ec83d580dfbU,
  0xbd4c5430bd23a223U, 0xbce0d7363cfb0509U, 0x3d32b1a3bafbc1ccU, 0xbc0cc1a4bcdc8d99U,
  0xbcf9213b3c7937a1U, 0x3d6860b03d64b155U, 0x3cf49b813d4d101fU, 0xbcaa65593d53a096U,
  0x3cb984f33c94df05U, 0x3d8e5032bd37c672U, 0x3da5bfb93d04bebbU, 0x3d116ae23bbf68ffU,
  0xbc880c02bd1b8eedU, 0x3d5c538dbd124739U, 0xbd0136de3cb8c6ffU, 0x3dabfa52bbe8f308U,
  0xbd4c3a55bd191481U, 0x3c1000803cea7005U, 0x3db2214c3d847475U, 0x3aeef4ec3db4eec0U,
  0xbd0f6d43bd0350c9U, 0x3cb0d4db3c1e596fU, 0xbd605e82bc81f983U, 0x3bbb2ef33daaf8a2U,
  0x3c74da9a3c213cdeU, 0x3dc9be26bd02b4ceU, 0x3dab1d523cb0e379U, 0x3b6149b83b0aa8b6U,
  0xbd531acdbce997eaU, 0xbcf5d6dc3d520f71U, 0xbc2271293d274d34U, 0xbcf7db7bbb99f942U,
  0x3caae5debd1beb7cU, 0x3c78e5c6bcaa52c2U, 0xbcee6a533aabaf44U, 0x3c743cf7bd5446c3U,
  0x3d3a36e63c15846aU, 0x3d8a74db3c711ae8U, 0x3d5b00f93d9fc767U, 0x3cd84baa3b929b6aU,
  0xbd60784e3d68fc3aU, 0x3ca124403bae06eeU, 0x3b4bdec73da27659U, 0x3d40b7f13d13d7efU,
  0xbc808ffd3d498ec6U, 0x3d86ee6fbc8f3045U, 0xbd6c60923d38aeafU, 0x3c17ea7b3d7f441fU,
  0x3cb98e7fbcd2bd1aU, 0x3b88b203bb5c234dU, 0xbcd88d7ebd2a0d8fU, 0x3cfdb5b2bd351c22U,
  0x3ce66f303d8363e3U, 0x3cd91fa73c7c9079U, 0x3a7c87613d1e1789U, 0xbd07e334bc564309U,
  0x3d92d04bbd150594U, 0x3d218734bc38a5f8U, 0x3c84f22d3d44e6bdU, 0x3c17b5263d90cdfdU,
  0x3b72cfc13ccaa46fU, 0x3c943dffbc00f6d3U, 0xbda2aff53b2a0bc0U, 0xbc5c93d5bd46b770U,
  0x3da668df3c03779bU, 0x3d71fe4b3c3cb35dU, 0x3d5903463d9bab9dU, 0x3cd81dc23d933d89U,
  0x3d7dd34c3d2440a7U, 0x3cfb5d963d934c59U, 0x3dad0d79bcd2db4dU, 0x3d164b36bcb34d84U,
  0xbcc40178bd3c0e63U, 0xbc2ce81c3d726b0fU, 0xbd43b5b43d2d3d25U, 0xbdb3e300bd431556U,
  0x3d0ca6fa3d68460bU, 0xbbe12f243d895545U, 0x3d0c51033ce7fec5U, 0x3d37c9d0bdb78164U,
  0xbd68dc34bd2784a6U, 0x3d62aa99bc5f3553U, 0x3b02edc2bd527a4aU, 0xbb48d546bd1e8e45U,
  0x3d64248f3d2d45a1U, 0x3d2245bc3d283c0cU, 0xbc3da47e3b8acb4fU, 0x39bbae3fbd0e7222U,
  0x3d2bc7803cc2473eU, 0xbc5488b23b307cbdU, 0x3c09fbf63cf06988U, 0xbca9e0623d0fdb9eU,
  0xbd45bee3bcc2a06eU, 0x3d953f7d3be1114cU, 0xbcdc7d45bc894c94U, 0x3d766038bd38816fU,
  0xbb3fb1373d0d4a62U, 0x389c3ffb3d7c9e09U, 0x3d134b423c747084U, 0xbb38022a3dbe91fcU,
  0x3c07fe8cbcffb584U, 0xbd2ea5603c46b4c4U, 0x3b9e2649bb1cf812U, 0x3d907676bcc08c70U,
  0xbc5ea8f4bd14817bU, 0xbd2f2d6a3dc3b886U, 0x3d6dbac6bd32d7fbU, 0xbd3d9e6a3cad2b87U,
  0x3d7a40e13ba75e97U, 0xbceacdac3dba8ccaU, 0x3e03b85dbc799feaU, 0x3cbabf65bd1e7dbaU,
  0xbc1ec0b73c512984U, 0xbcffebd8bd0dbf6eU, 0x3d396a61bda2a835U, 0x3d6da369bd296ac9U,
  0xbc1e3efabcdde4ecU, 0xbb0d38603c7bbef3U, 0xbcd33b683d3b3d13U, 0xbd0dd3cf3d418869U,
  0x3db07446bba76b1aU, 0x3d8d2bb93d0d36fdU, 0x3d09668d3c95fc29U, 0xbbca43683baf05b0U,
  0x3d685a4a3cbc1044U, 0x3bd47be9bd673a66U, 0x3e0dccfdbb9f2dcfU, 0xbc675695bd8b88e8U,
  0xbd79a92fba989908U, 0x3bfa4e9e3b00b239U, 0x3cebbef8bc982577U, 0x3c4632fa3c905f2eU,
  0x3d602d693c31cc1bU, 0x3d63ff333d0e7cbaU, 0x3da754f73d9475bfU, 0x3d480c49bd29b238U,
  0x3ca0377f3b76ea07U, 0x3c0e09373d7acd36U, 0x3c04a1f93d763e8aU, 0x3d8f0ffe3d55db76U,
  0x3da032923d722cb1U, 0x3d8123853d1abf9cU, 0x3c436f65bcbeac63U, 0x3d4d17fe3d90c7daU,
  0x3d078c733d60836dU, 0xbcb71d63bc8f4bc0U, 0x3d7c5645bc2c2cb7U, 0xbc6e88f03c74967dU,
  0x3d0af2763b8377a6U, 0x3d31f1193d091cebU, 0xbcd683823d777231U, 0xbc69f322bd5032d4U,
  0x3dbffd91bc468f03U, 0x3dba5b3ebcd69192U, 0x3b10f3a33d90c3faU, 0x3c7bab7c3d8e66edU,
  0x3d8d36f73d8e688dU, 0x3d5389c9bd105813U, 0xbb2eb76b3d85d5c0U, 0x3c8dd467bd5a8427U,
  0x3d7017f9bd1def60U, 0x3d0bec393d9cf9c7U, 0x3c6c77663da68575U, 0x3cf474313cfcee7dU,
  0xbd2b39a5bcacb463U, 0x3d882fc2bc980babU, 0x3d6e22513d630605U, 0x3b37d8813db00bf6U,
  0xbd0e7abb3d675badU, 0x3b46d159bceafef4U, 0xbc912929bc516a49U, 0x3c89bc6bbd5841e7U,
  0x3cd32f3f3b9da9a8U, 0xbcc9988bbcb37ddfU, 0xbdcc74d43d835d5bU, 0x3d7a77d73d5c0a8cU,
  0x3d0a88ebbd34933bU, 0x3d6e0ac03d8d4c03U, 0x3cd73bbfbc958d9bU, 0xbd3158ef3d71f69fU,
  0x3d855b843d3ba139U, 0x39ea1c53bd1a361cU, 0x3c3bd1b73d1a5ca2U, 0xbb67283a3cbfaecdU,
  0x3d5b3e47bb46c3a5U, 0xbd33fa7d3b71af7cU, 0x3cdfb8a3bd7c7506U, 0xbd3cb32cbcf3643aU,
  0x3d6800f73cd4bd75U, 0x3ae98ad63d26e9daU, 0x3d82add03ce01939U, 0x3d90b4f13bbbd094U,
  0xbcd3c3ff3cae1ae7U, 0x3cd4b9513da416b9U, 0xbc4534dfbd25d40eU, 0x3da3e123bb7a60e1U,
  0x3be8d68e3d04ede3U, 0x3d18034ab9bb006cU, 0xbd36aa8e3d73e235U, 0x3da4b6da3db22d62U,
  0xbc958e2abcf7bb31U, 0xbd3381d7bd0613cfU, 0x3c84ebc53d96a999U, 0x3b1bee393bcb869cU,
  0x3d0a27a1bc265e9dU, 0x3cc4f1223d5bfd6eU, 0xbd6ae3273d418d72U, 0x3c7c468b3ce49116U,
  0x3c87423dbb7166a1U, 0xbcb6fe993d42a493U, 0x3d88961bbd3624e7U, 0x3d618e5cbd97b878U,
  0xbc2dc956bd74c6aeU, 0xbd130b083da394bcU, 0x3d9ceff3bba6ed5eU, 0x3cc399353d56f2c1U,
  0x3d45ef19bcf2b18dU, 0x3d93f1a0bd0d03a6U, 0xbcc3b0c73d9670a0U, 0x3d1121683d034b86U,
  0xbcfddb383d84fb98U, 0xbd0d61aebcccb6c5U, 0xbd57ef713c808e8dU, 0xbc64b8b4bd59f290U,
  0x3ce82cd93d816b18U, 0x3c1da6af3cfbe7c1U, 0x3d7057d7bcdeb4a4U, 0xbbf1ca9d3d1dd83cU,
  0x3d27da463bac631dU, 0x3cba985a3d0c1b0bU, 0x3d88f1853b404b40U, 0x3cc4138f3d420475U,
  0xbd49a204bc93a2beU, 0xbd9249993d78c7eaU, 0x3c0e6ea63d4fa79bU, 0x3dcf1a59bd55b4cdU,
  0x3d87630c3c91fe62U, 0xbd096a2c3c8dfa13U, 0x3d5898593c30584dU, 0x3c28a576bbc52f7cU,
  0xbd4d24663c91455fU, 0x3bef054f3d21011fU, 0x3c70de673c1dc561U, 0x3d2833843b489bc7U,
  0x3d1d81793d6b88a8U, 0x3d82c1c5bc9274d2U, 0xbcc7b7053aa123fbU, 0xbd754e59bdacd573U,
  0x3cb941d1bd3991a3U, 0xbd559a743df236bcU, 0xbd83124dba832951U, 0xbd2347c93d951728U,
  0xbcf411e83c968f86U, 0x3cf53bab3dbed6ccU, 0x3e38b2f93d706963U, 0x3d15f4b93c1e7ba4U,
  0xbd4296d43c5badddU, 0xbd51208b3d568f95U, 0xbd3b8108bd919255U, 0xbd60a6dc3b6fdd23U,
  0x3d965a853d371905U, 0x3cf95f723d150fa6U, 0x3d5c4c3fbc5b13f9U, 0x3d75936c3d1a5fa4U,
  0xbbe710d3bcd48072U, 0xbcdd8f5c3d5a1794U, 0x3d2a16223d6db4f2U, 0xbca7ec173c5b68dcU,
  0xbd4f626bbcab12a9U, 0x3c0f80783e002ddbU, 0x3b1878e93d5bc6acU, 0x3b09e83e3d5c55ffU,
  0xbdb3a665bd69d77aU, 0x3d6c52a23d47db70U, 0x3d8329fa3cab06a1U, 0x3da434c4bd0b0526U,
  0xbd2f90a93d9e234eU, 0xbcd6f973bd04f383U, 0xbd53e02f39bcf59fU, 0x3d6d201f3daae929U,
  0xbb32294d3d97155dU, 0x3d8f85c03d45ad3cU, 0xbc0ea7d33c84112eU, 0x3b192ee53daf300bU,
  0xbd89f3043d014f3aU, 0x3d1e68fdbd966ed0U, 0xbb81a1333d0ae479U, 0xbb76a80e3d11c0efU,
  0x3cbe4a15bd0370f6U, 0x3d44f8883cb50f5cU, 0x3d78b2623c8b6700U, 0xbcfa74df3c0fe7b3U,
  0xbb84d9e03d6d4867U, 0x3ce7d2c43d976eb5U, 0x3c9bfa83bc9d66b8U, 0x3d8ff9a63cecda67U,
  0xbd033271bcb2437aU, 0x3d8c8aa53d0cb621U, 0x3d4841c63da52ce0U, 0xbb67d67bbb38b9f4U,
  0x3d05b44fbd1f1fcfU, 0x3d09f1a2bd1cacbdU, 0xbe0c9032bc219893U, 0x3dbdadb03d724634U,
  0x3db09a223cecb127U, 0xbcbd2f643d8575c1U, 0x3d0f93fa3d684c02U, 0x3d77094c3c9ed485U,
  0xba1b25c13cdd74c3U, 0x3d7e3fa63d572716U, 0x3cca44d3bbeeea13U, 0xbcb609a33d8be4faU,
  0xbc95b420bd667a26U, 0x3d8e594c3db894b4U, 0xbcc04b0d3d3ec8f3U, 0x3d9212eb3d40cfa9U,
  0x3cc4ff26bc8c567bU, 0xba26aa9cbd7a658bU, 0xbd56983cbd1d9f16U, 0xbba6136e3bed0044U,
  0x3d80bef73a5c79eeU, 0x3cd274413cc37d88U, 0x3d10b15c3d24ad35U, 0xbc959dd03ddc44dcU,
  0xbd24cb813c84df85U, 0xbc4ea2afbb2be691U, 0x3ca9e502ba012df9U, 0xbcad3ebbbd0af3d0U,
  0xbd5e5d383d4a01c6U, 0x3bdab2e73d8151aaU, 0x3d3e208d3d86431dU, 0x3ce0cce6bc8394b0U,
  0x3c5f90de3cda53f7U, 0x3d5235883dbab3c1U, 0x3db897033c3aff04U, 0x3db608f73c966f41U,
  0xbd4141bf3d17e8d9U, 0x3c8e99a83cb1246cU, 0x3d1699a43b2ebd86U, 0x3d05bd1b3d2eb221U,
  0xbd000cdc3c9a3784U, 0x3d4c45f9bbdf3f1aU, 0x3cc8caeabc9aa98cU, 0xbd26b2d9bda8d452U,
  0xbca2cff3ba0d6b6cU, 0x3c63bbef3bb23742U, 0x3d2dcc413d6a91f7U, 0x3d282096bd27e6a0U,
  0x3d9586febcab3fe4U, 0xbc66114a3df4a21bU, 0x3e239ba73d333506U, 0xbc99476b3cd93425U,
  0xbd7ddd00bd12d7c3U, 0xbb0e02e7baa973f0U, 0x3d7d4605bcbc7f1bU, 0xbbb75126bdd17119U,
  0xbbe9e51d3b4dcf1bU, 0xbb7e86de3d766cb4U, 0x3d32b35f3d3bedbbU, 0xbc5560903d9186a0U,
  0x3c8a8e703c825fedU, 0x3de8adecbd806a7aU, 0x3d9607bd3d7fb9d9U, 0xbca08028bc2b5af7U,
  0xbd0aa91c3dc1c5cfU, 0x3d3bf4bb3d6d9ddaU, 0xbcce7182babcfdcfU, 0xbca0c0763c1eb361U,
  0xbd83b3d63c65b4edU, 0x3ce734c13d870e4fU, 0xbd1f178dbdb2f541U, 0x3d1e6b513acf1305U,
  0x3d56a51f3d489c5aU, 0x3d365e62bc7c21abU, 0x3dbce35b3db3f0bbU, 0xbcf10ac0bb30db88U,
  0x3d9315f1bd255978U, 0xbd1ee1173ddc2ae5U, 0xbd5eca9abda218bcU, 0x3cb74816bc52a615U,
  0xbd34a2633cd72172U, 0x3da6e1893da547f9U, 0x3e14d786bd354518U, 0xbd4b38553c9d0ca2U,
  0x3cb13ef0bd89405aU, 0x3c08469fbd262f39U, 0x3d839141bd93aa1eU, 0x3d60eaa13cdf36b1U,
  0x3cc51a463cd00deaU, 0x3d00c26e3da0604eU, 0xbc07c8b6bbc29314U, 0x3dc61038b9d3fa40U,
  0x3d0ab5f3bd1375abU, 0x3d40ba82bd2eda05U, 0x3cb072543c9b2093U, 0x3bcbdf8dbd99f082U,
  0xbd2324bcbcbfb828U, 0x3d65fa2a3d5d07d1U, 0x3d74413fbcb1d141U, 0x3d3fa4133bf8cb6dU,
  0x3950ac1fbd9a00d1U, 0x3c35d1f6bcf6ba4eU, 0x3d6057ebbcec82c5U, 0x3c7adf8abbc4967dU,
  0x3d3a7d723c01df36U, 0x3cf54faf3c960131U, 0x3d3ca87c3caccdefU, 0x3ce9fce33d6b8f6dU,
  0xbd40c612bc8829b1U, 0x3d56aa68bcfec066U, 0xbd2f7525bd23cb4bU, 0x3c229020bd40df1fU,
  0xbd9b236a3d319b7fU, 0x3bfdabb93d32115eU, 0x3d889e53bcc914ceU, 0xbd0315953dba6103U,
  0xbdd40672bc2caac4U, 0xbd3c006dbc79d19eU, 0xbd5efcd13d655e0fU, 0xbda562b5bd6ec6eaU,
  0x3d0ac1733d5555b0U, 0xbd0ea563b9e9a767U, 0xbccc313fbd10d4c9U, 0x3d98cbba3d20df3cU,
  0x3d29efa03d885a0aU, 0x3d550a2c3d8d390fU, 0x3bef1f033d9c7fcdU, 0xbd1fad48bbd8dd95U,
  0x3c64b4633cf1ee87U, 0xbd41dbc5bdc53042U, 0x3d9e0d1a3dd6d380U, 0x3d5c92cd3d375ec7U,
  0xbcd9b4783ca4ff33U, 0xba66dd833c6c0336U, 0x3b69c0303dc358a8U, 0x3d84399c3ca816bfU,
  0x3b7d382e3d9b504fU, 0x3d4e8d84bc4eda0fU, 0xbd13c24b3bfdafe3U, 0x3de15f4f3db44e94U,
  0xbc2976de3c67e6bbU, 0x3d813d19bd37f904U, 0x3db523003da32590U, 0xbd3d157d3d5e3453U,
  0x3d9a0cd73dc0cee5U, 0xbca972f8bd3693f5U, 0xbde4e7ca3cf827b0U, 0xbce2a9bc3de83a69U,
  0x3a8dbea3bc48f2aeU, 0xbb361995bcc12123U, 0xbc8dc106bcc76cfcU, 0x3d62f0083d5218f1U,
  0xbd97e4d7bd619c1fU, 0x3ca16670bcc0c5a6U, 0xbba34eebbc3b3cd2U, 0xbd01c50e3dad0f69U,
  0x3dd0d32d3d5392d2U, 0x3dd0caaa3cfce0c9U, 0x3cd608593d0cea6dU, 0xbc9f79ce3dea2bebU,
  0xbd6343443d31295fU, 0xbd2a7d093c04c432U, 0xbda5130e3da0930bU, 0x3d11d5223d737ed6U,
  0xbd09e4733d5b4266U, 0xbd5110993d2e02f9U, 0x3d807db9bdb0c09cU, 0x3d36bbae3d491591U,
  0x3c29b9343caa0cdbU, 0x3caec0b03c935e95U, 0x3cc1933c3b536c93U, 0x3da7dc39bd3d1134U,
  0x3cb727bc3cfe03f1U, 0x3d47162bbc08bc58U, 0x3cdc63b73c3ebc34U, 0x3c5b8d9dbb6c86d9U,
  0xbd53b91e3d33559dU, 0x3cfdeabebc9c1d31U, 0xbdd226163d23d312U, 0x3dbf3651bba2454aU,
  0x3d51aac73c167629U, 0xbc0ea1d43d66dd05U, 0x3d9834cabd3c8f64U, 0x3d634adc3c218e13U,
  0xbd0f94573c5b32c5U, 0xbd27a55e3ab8359bU, 0x3b90bb38bd5522a8U, 0xba95131c3dae34d1U,
  0xbcb362633beb0ea8U, 0x3d0e52423d39f953U, 0x3d937b873d4f6714U, 0xbc22c9eb3d8ace1bU,
  0xbc88ed4e3db8df8dU, 0x3ae352d13c93a1dcU, 0x3d71d800bc94aea9U, 0x3b827d66bd151053U,
  0x3d258721bd056e8fU, 0x3cb90d553d76a1d4U, 0xbcac1f4e3c190139U, 0xbd1226623a0ab92aU,
  0xbc9da4bb3d7d6c83U, 0x3ba09cedbd34c316U, 0x3d8d24133bf764bcU, 0x3d98b4643cd2affeU,
  0x3d81dac63c01f5a2U, 0x3db2b1bcbd253b9bU, 0x3d840fe03d875e8cU, 0xbb8aa37abd84bd31U,
  0x3c4eb028bc60a33fU, 0xbd50b4cd3be67ee0U, 0x3c5aadc23d133950U, 0x3d994765bd838222U,
  0x3d6737a9bd6d7886U, 0x3da87654bd2cf17fU, 0xbba4ba553c7ed50dU, 0xbd2042833d45ea13U,
  0xbd1de23cbd21d4b9U, 0x3c9d0e623da39d1cU, 0xbc8ff73c3cb61dccU, 0x3d11509b3d8b566fU,
  0xbb8d47debd3e7eb2U, 0x3cbe6ad53ceb494bU, 0xbd9fddbcbbd56fceU, 0x3d34148f3ca0f8abU,
  0x3d77e0beba458ccdU, 0xbc1cb4d3bd0bb4adU, 0x3dac754cbcf44064U, 0xbc8212b2bcf9a70fU,
  0xbc14f009bd407391U, 0xbdbe9b3e3aa5f314U, 0xbcd931c63b0329c5U, 0xbceea71a3d1e6a1aU,
  0xbcd6cc16bd75cdc5U, 0xbc939ca3bc58b477U, 0xbd2ae8e13b4de0a1U, 0x3d921a453c4adaaaU,
  0xbdb97431bd113f4fU, 0xbe10b6703d27eee5U, 0x3d96c3dabcbfd6e8U, 0x3d20bf80bdc64c1aU,
  0xbcaef1e4bd7d03e9U, 0xbc9a73b6bca75dc4U, 0xbd4bc906bda29c9fU, 0xbcbd3357bd883fadU,
  0xbd91bd81bd51c234U, 0xbb8a0d70bd32049aU, 0xbd68d2f8bccf829bU, 0x3d96eb4fbdb2f558U,
  0x3b49479b3daa3fc9U, 0x3d4d36033c897c90U, 0xbd9c2dc0bd462f90U, 0x3d9629453cc10ca5U,
  0xbcb479f33b3aa28dU, 0x3dd8461ebda4158dU, 0xbc43a3ebbcddb95fU, 0xba112774bb98f09dU,
  0x3da2116e3ba6d700U, 0x3d8cf4eb3b978d12U, 0x3b913497bdf1cc7fU, 0xbdc3cf623d0c3c0eU,
  0xbbc3aa87bd3424b1U, 0x3dbbaaacbcbcd70cU, 0xbd1f8e493dcf0558U, 0x3d27aeb4bd3a6315U,
  0x3d2aaf423d092361U, 0x3d92461f3d823ef4U, 0x3d12e60a3d63b6c0U, 0x3d4742c1bdde91ceU,
  0x3d57c0603c9302e0U, 0xbd7bed0b3b529fbaU, 0xbd603c78bd2b755cU, 0x3afaea3abc2b3bbfU,
  0xbcb41327bbe49225U, 0x3d54f63b3d34d9ceU, 0xbd318198bcea0bddU, 0xbc4203cd3d7d0421U,
  0xbd635ca7bdcf47d4U, 0x3ceb80b63d72fdd8U, 0xbc0074bf3ba1876eU, 0x3dc793f9bd86aadeU,
  0x3d89a2e93b8de910U, 0x3de71945bb32ec48U, 0x3c94b073ba23ac15U, 0xbcce2f8d3d522577U,
  0x3dc8f658bbfa5911U, 0x3d908238bca5d9a7U, 0xbd0ede2f3d7a75cdU, 0xbbbac89c3db42b8cU,
  0x3d30e23ebc48e3c9U, 0xbcf30a99bde0338dU, 0x3dbd49a53d55ebc4U, 0x3d5ac765bcd2bf20U,
  0x3dd865323db114bcU, 0xbb838b1e3bb809dcU, 0xbc50cae63d4a8c5cU, 0x3cb9abaa3dbf11e5U,
  0xbc0de4493c57a23cU, 0x3d1058183d22a9d7U, 0xbc926d493d12dbebU, 0x3d9985b33c405435U,
  0x3c5c5f9c3ddb1dc0U, 0xbce1503e3d811c0bU, 0x3d2d21c4bd2d56fdU, 0x3d763f973dafe5adU,
  0x390dfc36bcb22e4dU, 0xbd3a019f3d01a9b9U, 0xbcc4c5833d938395U, 0xbd1113233cfb0ebaU,
  0x3c51f3193d11b5dcU, 0xbe069f1e3c95c660U, 0x3d759a07bcde41a3U, 0xbd9aa64ebc45b2cbU,
  0x3d1f4f57bd733d5dU, 0x3d490a10bd14871fU, 0x3c91bd603c1fad72U, 0x3cfd13fabdaa2eefU,
  0x3db7ed203c734a58U, 0xbd8e7b7a3d8b9019U, 0xbd3a7cebbcb02ae0U, 0xbd8152323c967923U,
  0x3e03ea2f3c837682U, 0xbcefa8443d80762bU, 0x3d8650843d583000U, 0x3d3282c6bc0aea00U,
  0xbd807a55bcd79c36U, 0xbd44073bbc256731U, 0x3da79a8a3cc19235U, 0x3ccba1283db46494U,
  0xbd15e834bd78b69cU, 0xbc89bab83dacca1fU, 0xbd05781dbcdfcb17U, 0x3e0bcb7f3b12b434U,
  0x3c32e1893dbe66a6U, 0x3c0bf8583d94f1dcU, 0xbd5dd6f03d2f9964U, 0xbc4b85243cb1cebfU,
  0x3d6f5c94bcd43ac1U, 0x3d9b5e113b77e053U, 0xbcab93f43d7ae528U, 0x3d9c3ff23dd3f5e3U,
  0x3d1f1624bd8a7211U, 0x3ce32ee23d85adadU, 0xbce3d245bd0dc29fU, 0x3d12f997bc7a7678U,
  0xbd89b247bd50840cU, 0x3a250fce3d6c1190U, 0xbe0824c33cf05001U, 0xbdda2235bdac5249U,
  0xbd03ab9a3c222677U, 0x3cf63cb9bb874550U, 0xbc5d99473d5b7a61U, 0x3c52479d3d83a635U,
  0xbd6abba6bcb8af11U, 0xbd8563013dc36cd4U, 0xbc5bfe953cac3019U, 0xbd281addbd4c5c7bU,
  0xbd867ea3bceeacf4U, 0x3c6239df3da1dc25U, 0x3d364b2ebe13a74fU, 0xbd045409bd4e2d57U,
  0xbb075173bc114ea2U, 0x3be1451e3d98933bU, 0xbc2ce71ebd0e0d1dU, 0xbcf62efcbd9f5b76U,
  0xbccc0e9a3c989c79U, 0xbd7e612c3d849c20U, 0xbbeb97ecbc9b8027U, 0x3bfaf5423d7b62e0U,
  0x3cefc5f1bc842773U, 0x3d9c2276bc83d9c1U, 0x3d915790bc636631U, 0xbd376393bc95a89aU,
  0x3d2ecebfbd1153c2U, 0x3d1ab1ebbcdcd592U, 0x3ca3e4e23d82058aU, 0x3c3242e13ce7118eU,
  0x3b43b1ebbc85509cU, 0x3d89247c3c6954e5U, 0x3c9e2d0abcafad0bU, 0x3c89c4303bff1eb6U,
  0x3c638bf0bd9a1922U, 0xbcb14244bcf7b1ebU, 0xbd6380e13d404643U, 0xbd38a1dd3b2a380cU,
  0xbd4e4d7d3df129c3U, 0x3ae345883d7f4300U, 0x3de7eefa3c53f7acU, 0xbd97b058bdb4ecadU,
  0xbd2cc9c53ce29324U, 0xbd74667bbbd9e4e4U, 0x3d9d9fe2bbae2ea7U, 0xbdd59a463d871422U,
  0x3c37bd0bbdaec5fbU, 0xbd7977b3bcd3b462U, 0xbc78caa63c842ca9U, 0xbda5a6053cd00301U,
  0xbd37e3433d5275b0U, 0xbbb801323d293981U, 0xbdadfaa03c72e6beU, 0xbd143aa63dbaff34U,
  0xbc8fa274bd9ea008U, 0xbd8ed9ee3cd21aa8U, 0x3d3a35553c551abbU, 0x3cb26b3b3b7ac1eeU,
  0xbd5dc5713b99bb37U, 0xbdb9142e3cb7b95fU, 0xbd879303bdb4271bU, 0x3d55c0a43d66d308U,
  0xbd4fc03c3da72bf4U, 0xbcf745f73d82b0b3U, 0xbd164fef3da763c2U, 0x3c99b958bd6dd7daU,
  0xbccb8b5b3cd864ffU, 0x3d115d80bd54d608U, 0x3cd42df5bc5fbd12U, 0xbc1f2a54bd9aaee5U,
  0xbd37faa53d47241fU, 0x3cd7222c3b80c556U, 0xbcca2f5b3bd49efcU, 0xbd40b499bc91a75cU,
  0xbdb25801bd00dd01U, 0x3d482d9f3abeeda8U, 0xbd5086e8bd76430bU, 0xbc5a98223cee9277U,
  0x3d68f378bd231acfU, 0x3c99fb783d2c8ca5U, 0x3d86e65bbd335b48U, 0x3d2aebfc3e08ee25U,
  0x3c1ecefc3d214742U, 0x3ca30893bc971331U, 0x3d9218313df7ec9eU, 0x3d7879b4bd2e8baeU,
  0xbc3f9f2e3cb8f469U, 0x3d9fc5c63c99cdbeU, 0xbd66da393c813eb1U, 0x3d3eca223dc9d247U,
  0xbc41a9153d1d2310U, 0xbceca1e43bf8e574U, 0x3dad10e7bd5c05faU, 0x3c406299bd112dc5U,
  0xbdc67d513b565e29U, 0x3cec8a013d06ef0aU, 0xbd97b9853ce4efc9U, 0x3d0ea513bdecf0d7U,
  0x3d2a68073cf4c15eU, 0x3d88a2a0bc9048afU, 0xbcbdef6d3d4a6cbcU, 0x3de4c46cbd46d598U,
  0x3d7992ea3b564d68U, 0x3b80e22c3d937c35U, 0xbd9ccc5cbd5a9112U, 0x3d663f7dbda2b2f9U,
  0xbcf047993cf85ffbU, 0x3d0050c63db604e0U, 0x3b904368bc8d5a8bU, 0xbd80d1eabd349583U,
  0xbc991a6abcb298dcU, 0xbcdb25e43d217c20U, 0x3d28ce7cbbff52a9U, 0x3d738f6c3cdc9b5bU,
  0x3d36614cbd58ea4fU, 0xba5180a6bd53cb57U, 0x3d9410d6bcb2c15dU, 0x3c9557a63c5cc12fU,
  0xbcec2a373cfe0abfU, 0xbd017708bcd0e195U, 0xbdca98043da4ea47U, 0x3cde50a9bba78760U,
  0x3dc5e0f13d230676U, 0x3d75d237bca20dd9U, 0x3d87137ebcab76ddU, 0xbc26bc373d054933U,
  0xbd2ea805bc81599eU, 0x3b12b7b13cff02a1U, 0x3b3397c63d9f05d4U, 0xbd0c153abd8f46a5U,
  0x3b74b476bce5b4f2U, 0x3d3398873d3ab609U, 0x3d3a1cc83cc0e655U, 0xbc850cf73d66002aU,
  0x3d677be6bbd0ae4cU, 0xbcfe49fd3d764277U, 0x3b0583cc3a573c69U, 0x3d31122b3c793506U,
  0x3cf80a2dbd479391U, 0xbc24d942bceadfccU, 0xbc4a37e73d9354fbU, 0x3cb4811cbccf425dU,
  0x3d9bc838bc914687U, 0x3c7b2a1d3d50b9e5U, 0x3d9095b53d02db22U, 0x3bc9ff1fbc0c8917U,
  0x3db1ca7fbba16926U, 0x3dbe3e323da2b2e2U, 0x3d1764a03c872e50U, 0xbc80da87bd216853U,
  0x3d04a56ebd37f4d4U, 0xbd4442743d73e2eeU, 0x3d5e80193d813916U, 0xb99fda343cab3e78U,
  0xbbe69147bd2a1611U, 0x3d02872e3c4d30b3U, 0x3d5c3e92bccf9794U, 0x3bb16a53bbe26a47U,
  0x3d972966bca54b08U, 0x3d5214313c850b1bU, 0x3d0ae7563d841c11U, 0x3d940da739a50c67U,
  0x3d79d8d33c0151bfU, 0xbd067b0fbb6e4b92U, 0x3d4b1c833c7aae7dU, 0xbaf639933d81fb5dU,
  0x3d405a223cb40158U, 0xbd061e44bb9c8b89U, 0x3d15dbc3bca035a7U, 0xbd5e2f96bb2bc3c0U,
  0xbd4446cf3d233260U, 0x3d88c3dc3d3dacafU, 0xbcee4575bd058dfaU, 0xbc8563ffbc153237U,
  0x3c89361a3c293d7eU, 0x3c4c6e463d8caa9eU, 0xbd7285713d26fcafU, 0x3d77bdafbc82a75bU,
  0x3d53da6a3d722b95U, 0x3c7e0d0e3b87b042U, 0x3da4a99d3d2a0c83U, 0x3d053e983d935e3fU,
  0x3c61aaa9bd04540bU, 0x3d220c873d702aafU, 0x3d8835d83cda5614U, 0x3c9b4def3b175f76U,
  0x3d3747c83c39246aU, 0x3cf7df763d9621d0U, 0x3d8930a3bca938e9U, 0x3d1b2d91bba84264U,
  0x3da1504cbc2dfe76U, 0x3d6f3d933caceb12U, 0x3cea50553ce58492U, 0xbc539f09bd0509aaU,
  0x3c51ed493d1baa9eU, 0x3c9f62293d632452U, 0x3da39c5b3d4ab515U, 0x3c8e9410bd267fb0U,
  0x3dac1b113d05dfdbU, 0x3d3c333c3d29e0d7U, 0x3dc6b84b3db119bbU, 0xbc47846e3d5f856bU,
  0x3d70caaabc0aab91U, 0x3c193e43bd015f1eU, 0x3d91fb923d173771U, 0x3c03a0ea3cff5ca8U,
  0x3da8e110bcda0d95U, 0x3d3ada4f3d884c3eU, 0xbcd516d63cc87c8aU, 0x3d94e9033c883ff5U,
  0x3bf86da73baca6d5U, 0xbca322babd82097eU, 0xbcd91833bc154414U, 0xbd07293ebd42e34aU,
  0xbd1b1e753cbd2a1fU, 0xbc35a5f5bc221777U, 0xb7b21c243d11b20cU, 0xbc07019a3d4e6e96U,
  0xbd76c0bc3cb15d46U, 0x3b6fd18f3c09ec1cU, 0x3d1f5199bbbc7326U, 0x3d6d21acbd1f242eU,
  0x3d73418e3d6c0cb0U, 0x3ad4d742bcf296afU, 0x3d77aff43d482107U, 0x3c3fa4e93c17161fU,
  0x3c331dc43cb16988U, 0xbbc43cb4bc32bd1aU, 0x3d5bc28e3d205893U, 0xbcb940ab3d08bd22U,
  0xbca756843d827f73U, 0x3d5c7b173d84ae93U, 0x3d2d346e3d8d22fcU, 0x3d484c8b3d2f818aU,
  0xbd3c83863d20d286U, 0xbd37a4df3d80c6b4U, 0xbbe6fc7d3d133dd8U, 0xbbfe4b1f3d61d245U,
  0x3d86aa6f3b12cc22U, 0x3c01e256bcc29965U, 0xbc95b9cbbd0b6cd4U, 0x3d968d2d3e04ebbdU,
  0xb99e810f3d206d71U, 0x3c8e6efc3d92ea89U, 0xbc66a1fcbb957fb8U, 0x3c76d81abc4fda2aU,
  0x3b8b69f63d984b1aU, 0xbd111cbc3db6dde9U, 0x3c51876f3daca466U, 0x3d01786f3dbb2a22U,
  0xbac2411cbccfeca8U, 0xbcdf52d03c51e15eU, 0xbd4aadee3d54b13eU, 0xbd27f4083d552e92U,
  0xbd0832223c8bd37cU, 0xbc1f57713cf67935U, 0x3dbc9bd83d0f980dU, 0x3d2e59793da0a250U,
  0x3b9c11503d4b9237U, 0xbd39dfd5bc36aa65U, 0x3d8fae623d4fe9ecU, 0x3c7f5dd6bd24da63U,
  0xbccd95173d322e11U, 0x3d9d45e53d86768dU, 0xbc36b2fd3d8c8415U, 0x3d5a5ce43d5551daU,
  0xbce67240bc71b44eU, 0x3d1b1d083d820248U, 0x3cda06f23cd19b23U, 0x3bbf4f693dad22c8U,
  0x3c67e798bd8a9e93U, 0xbb19d0493c829210U, 0xbca21242bc8ae29aU, 0xbccdb919bd39526aU,
  0x3db24059bad2b144U, 0x3b96adc03dafcc6eU, 0x3d819db03d37c3d6U, 0xbcad6f7f3d13c959U,
  0x3d8e6a67bc43a1bfU, 0xbbcd5d623d90df90U, 0x3db0f051bd0cdc68U, 0x3da5f34dbbbc68b4U,
  0xbd3ba552bd0d6388U, 0x3d0c3cf43d941949U, 0xbcac3219bd8e872aU, 0x3d7d7096bb337f3cU,
  0xbcb9f3fa3c896d64U, 0x3d8b822f3c3fd7a1U, 0xbc796fb23da2846aU, 0xbcd6d1e23d923973U,
  0x3c69cadfbc1965a8U, 0x3db89119bd20b589U, 0x3d2b7e85bd0453a7U, 0x3cebd77ebd6214c2U,
  0x3d0a538a3d4e70d3U, 0xbc9d20043d41ad1fU, 0xbca12a703b3d9f86U, 0xbb898abcbc14856bU,
  0x3cb0c8c23d93324aU, 0xbc2aa2d03c91b2adU, 0x3cb87f98bd68aa04U, 0xbce7a4b5bd9e2b64U,
  0x3c694187bb887a36U, 0xbd122e95bc93def6U, 0x3d91c29a3d027856U, 0xbcb2da8f3d57c72cU,
  0xbd09a83b3cc2afceU, 0xbdb8e4ac3d96b3b3U, 0xbd8be4dabd021af4U, 0x3da810a9bc4cab09U,
  0x3baa4dda3d464ed1U, 0x3d7a03833d969e71U, 0x3df3b38cbd1468fdU, 0x3d48d4b2bd5e03beU,
  0xbcdf0648bb558ae6U, 0xbc1a20963da1e331U, 0xbbd31f623d55abbbU, 0xbd5a10503d64d1afU,
  0x3cce01e3bcf152b4U, 0x3b9d8093bccd8c6aU, 0xbc4f9b58b9c058bcU, 0x3d472439bd7db910U,
  0x3d9773fa3d9e9811U, 0xbd3a28df3da40003U, 0xbc820d753cb04f96U, 0x3d3f51c23c0309cbU,
  0x3d51c1eb3da5ad17U, 0x3c79776a3d8e1eb0U, 0x3e0a4e113db028daU, 0x3ca694d93b7a3d11U,
  0x3c0b6e57bd9ee06eU, 0x3cdd87963d5ea7f1U, 0x3c86b66bbc89a917U, 0x3d55995dbcffe4b8U,
  0xbbb73dfcbd18306aU, 0x3ce303c6bba6efffU, 0xbd2e9bbebc0735a3U, 0xbcd3ef1ebc0ba875U,
  0x3cfae3443bb4fe3eU, 0x3d9234cebd516a14U, 0x3d6795663d90067fU, 0xbc9ddcf2bdad414eU,
  0xbd82e2c8bd1e87e3U, 0x3ba5aadbbd4f2af6U, 0xbcf932253cb9f827U, 0x3c801b843d0973a0U,
  0x3be5e9663d21a624U, 0x3b9f58503c9fe14aU, 0x3caa2f153ccf9c10U, 0x3d22053c3c4763d9U,
  0x3d3d236e3c834637U, 0x3d4a3dc93d0d66dfU, 0xbcd6592fbc0ebe2bU, 0x3c9846423cdfd14aU,
  0x3d58c95d3de07ec0U, 0xbcb692de3d40c6eeU, 0xbd65f1f73d7c0be7U, 0x3d18b0cf3b90fcd7U,
  0xbccfd310bcaab074U, 0x3c878945bd6a3c59U, 0xbda1ec863da35019U, 0xbd1698483d1b1e84U,
  0xbcb9aedebd96c478U, 0xbcaf28a1bc423a3fU, 0xbca849f0bd2ab7b4U, 0x3d86c8843cbaf9d4U,
  0xbc8bef62bd342dcbU, 0x3daa89b03d2e29a1U, 0xbced5744bcf5d209U, 0x3da90a2e3d76e6f6U,
  0xbcac00953db3cda3U, 0xbcafb7c53d901815U, 0x3c1ad90f3ce5c6b2U, 0xbd9cf6033d54d5caU,
  0x3dca0539bcef4642U, 0xbd264b2f3d4d9d52U, 0xbd2a5988bc9caf83U, 0xbbf71f7f3dadcbf8U,
  0x3d8a31e6bd547bdfU, 0xbbcbef343d595e53U, 0x3d7ac6923d42fa23U, 0xbcd0cf963d717331U,
  0x3da6ab0a3b12da8cU, 0x3d46e76bbd302a33U, 0x3dbcae373d12622cU, 0x3d3e62943db7d451U,
  0x3d9fced03bfd0626U, 0x3c186b473dc8de30U, 0xbc5a2f65bb598662U, 0xbb12e8df3d5ef087U,
  0x3d87d6be3d403999U, 0xbaa1ff413d2e202bU, 0x3dc2e408bd0c64e8U, 0x3d83646abd3701d3U,
  0x3cc3170d3db5d005U, 0x3c6600c4bb0b6026U, 0x3c690e9bbcf10be7U, 0xbd0cb0453d43f1f3U,
  0x3d2016d83c7e11f8U, 0xbcae05253c9003dbU, 0xbc7623073d6a39b9U, 0x3d9cf97fbca98e45U,
  0x3ce89fa83b6a4be0U, 0xbcc1681e3caf28adU, 0x3db8fdf73b073f78U, 0x3c8f18f33d0802ddU,
  0x3dc59fdfbc9a954fU, 0x3d5040663cf4e393U, 0xbaa817e13be7bc7fU, 0x3b2ea05c3ccee847U,
  0x3d490dc63d7ff92eU, 0xb9e6eb693c8af909U, 0xbd0307333da0fd88U, 0x3d92e4c7bd061d87U,
  0xbd30adfe3d654b0dU, 0x3d838f3a3c88b680U, 0xbda162683daade1cU, 0x3d7a8777bcd9eafeU,
